{"</s>": 0, "<unk>": 1, ",": 2, "▁the": 3, "▁of": 4, ">>cmn_Hans<<": 5, ".": 6, "▁and": 7, "▁": 8, "▁to": 9, "。": 10, "▁in": 11, "的": 12, "▁a": 13, "、": 14, "▁for": 15, "-": 16, ")": 17, "和": 18, "▁on": 19, "▁that": 20, ">>cmn_Hant<<": 21, "▁(": 22, "'": 23, "s": 24, "?": 25, "▁The": 26, ";": 27, "▁I": 28, "▁with": 29, "▁-": 30, "▁by": 31, "▁is": 32, "年": 33, "▁be": 34, "▁as": 35, "(": 36, ":": 37, "在": 38, "▁you": 39, "▁\"": 40, "▁it": 41, "/": 42, "▁was": 43, "月": 44, "▁its": 45, "▁are": 46, "▁United": 47, "▁at": 48, "》": 49, "!": 50, "▁from": 51, "▁or": 52, "《": 53, "▁Nations": 54, "▁have": 55, "▁not": 56, "了": 57, "▁this": 58, "▁an": 59, "t": 60, "▁all": 61, "▁which": 62, "▁their": 63, "▁Committee": 64, "对": 65, "▁has": 66, "与": 67, "▁In": 68, "▁States": 69, "...": 70, "或": 71, "是": 72, "▁international": 73, "▁been": 74, "▁will": 75, "为": 76, "日": 77, "▁had": 78, "第": 79, "▁A": 80, "▁also": 81, "中": 82, "A": 83, "▁It": 84, "▁'": 85, "▁were": 86, "▁other": 87, "a": 88, "以及": 89, "▁should": 90, "▁Council": 91, "▁development": 92, "并": 93, "▁would": 94, "▁rights": 95, "▁countries": 96, "将": 97, "▁s": 98, "1": 99, "m": 100, "▁report": 101, "▁You": 102, "包括": 103, "d": 104, "▁我": 105, "▁在": 106, "▁we": 107, "▁me": 108, "▁resolution": 109, "b": 110, "▁including": 111, "以": 112, "问题": 113, "▁under": 114, "▁women": 115, "▁such": 116, "3": 117, "▁human": 118, "▁work": 119, "▁General": 120, "▁Assembly": 121, "有": 122, "▁can": 123, "我": 124, "▁support": 125, "▁information": 126, "▁你": 127, "▁national": 128, "ing": 129, "人": 130, "2": 131, "▁out": 132, "▁State": 133, "re": 134, "6": 135, "▁session": 136, "▁they": 137, "General": 138, "4": 139, "关于": 140, "▁one": 141, "▁We": 142, "你": 143, "▁implementation": 144, "▁Secretary": 145, "▁do": 146, "▁Convention": 147, "时": 148, "c": 149, "向": 150, "就": 151, "5": 152, "其": 153, "▁right": 154, "▁more": 155, "不": 156, "▁made": 157, "上": 158, "国家": 159, "提供": 160, "12": 161, "▁my": 162, "▁there": 163, "▁Commission": 164, "7": 165, "而": 166, "▁into": 167, "▁those": 168, "▁Government": 169, "▁International": 170, "▁your": 171, "▁he": 172, "▁activities": 173, "▁against": 174, "▁his": 175, "进行": 176, "C": 177, "▁well": 178, "e": 179, "公约": 180, "▁through": 181, "▁no": 182, "他": 183, "▁about": 184, "10": 185, "▁up": 186, "▁but": 187, "),": 188, "▁any": 189, "及": 190, "▁law": 191, "▁between": 192, "委员会": 193, "▁so": 194, ")。": 195, "▁“": 196, "▁meeting": 197, "工作": 198, "方面": 199, "▁them": 200, "▁who": 201, "▁What": 202, "▁per": 203, "▁know": 204, "通过": 205, "▁need": 206, "▁measures": 207, "▁This": 208, "▁system": 209, "▁what": 210, "▁country": 211, "▁Security": 212, "▁security": 213, "▁new": 214, "9": 215, "▁organizations": 216, "”": 217, "有关": 218, "▁No": 219, "▁time": 220, "▁Mr": 221, "▁Conference": 222, "▁1": 223, "·": 224, "▁Republic": 225, "联合国": 226, "▁cooperation": 227, "S": 228, "▁efforts": 229, "▁these": 230, "▁draft": 231, "▁could": 232, "L": 233, "我们": 234, "从": 235, "▁people": 236, "条": 237, "▁children": 238, "▁take": 239, "▁like": 240, "▁some": 241, "▁Development": 242, ").": 243, "▁if": 244, "8": 245, "方案": 246, "▁resources": 247, "地": 248, "▁programme": 249, "▁He": 250, "也": 251, "▁may": 252, "▁Rights": 253, "11": 254, "个": 255, "需要": 256, "▁non": 257, "ed": 258, "▁regional": 259, "于": 260, "号决议": 261, "段": 262, "▁two": 263, "报告": 264, "所": 265, "▁--": 266, "被": 267, "由": 268, "▁number": 269, "▁cent": 270, "先生": 271, "国际": 272, "来": 273, "到": 274, "▁only": 275, "▁Group": 276, "▁assistance": 277, "▁order": 278, "▁ensure": 279, "▁issues": 280, "▁provide": 281, "政府": 282, "应": 283, "▁use": 284, "执行": 285, "▁paragraph": 286, "▁over": 287, "▁financial": 288, "▁our": 289, "▁process": 290, "都": 291, "这些": 292, "▁economic": 293, "ll": 294, "活动": 295, "▁Human": 296, "▁her": 297, "▁don": 298, "▁than": 299, "▁further": 300, "▁members": 301, "▁social": 302, "根据": 303, "▁article": 304, "▁just": 305, "说": 306, "▁services": 307, "▁Office": 308, "▁And": 309, "▁must": 310, "一个": 311, "▁Special": 312, "没有": 313, "▁particular": 314, "▁here": 315, "支持": 316, "要求": 317, "▁party": 318, "▁他": 319, "▁developing": 320, "可": 321, "▁provided": 322, "▁relevant": 323, "▁shall": 324, "▁2.": 325, "“": 326, "▁within": 327, "▁C": 328, "▁him": 329, "▁years": 330, "▁programmes": 331, "▁That": 332, "▁decision": 333, "▁1.": 334, "但": 335, "一": 336, "▁我们": 337, "E": 338, "他们": 339, "会议": 340, "▁first": 341, "▁management": 342, "吗": 343, "▁public": 344, "▁[": 345, "▁when": 346, "已": 347, "▁December": 348, "▁areas": 349, "▁adopted": 350, "▁make": 351, "要": 352, "▁period": 353, "所有": 354, "▁staff": 355, "▁health": 356, "法": 357, "▁now": 358, ");": 359, "▁held": 360, ">>cmn<<": 361, "▁where": 362, "▁during": 363, "▁level": 364, "还": 365, "▁being": 366, "性": 367, "▁persons": 368, "者": 369, "▁B": 370, "代表": 371, "后": 372, "下": 373, "▁go": 374, "继续": 375, "▁review": 376, "▁regard": 377, "i": 378, "该": 379, "▁protection": 380, "▁education": 381, "项目": 382, "30": 383, "会": 384, "▁President": 385, "妇女": 386, "▁action": 387, "▁parties": 388, "▁At": 389, "组织": 390, "它": 391, "可以": 392, "]": 393, "▁political": 394, "▁legal": 395, "▁Programme": 396, "等": 397, "作为": 398, "发展": 399, "▁situation": 400, "使": 401, "▁get": 402, "建议": 403, "已经": 404, "▁continue": 405, "▁As": 406, "▁peace": 407, "▁taken": 408, "▁community": 409, "▁Organization": 410, "ve": 411, "▁capacity": 412, "▁accordance": 413, "▁3.": 414, "▁said": 415, "的报告": 416, "▁following": 417, "▁training": 418, "▁policy": 419, "合作": 420, "▁agenda": 421, "▁2": 422, "▁respect": 423, "使用": 424, "▁among": 425, "▁recommendations": 426, "▁part": 427, "▁special": 428, "▁did": 429, "▁Member": 430, "▁world": 431, "她": 432, "必须": 433, "▁effective": 434, "▁important": 435, "促进": 436, "美元": 437, "▁before": 438, "▁第": 439, "▁access": 440, "情况": 441, "这一": 442, "认为": 443, "15": 444, "机构": 445, "▁both": 446, "▁most": 447, "▁reports": 448, "20": 449, "行动": 450, "▁They": 451, "▁established": 452, "▁S": 453, "可能": 454, "▁P": 455, "▁Africa": 456, "▁To": 457, "▁role": 458, "规定": 459, "经济": 460, "名": 461, "处理": 462, "日第": 463, "▁progress": 464, "▁related": 465, "▁Parties": 466, "参与": 467, "▁year": 468, "▁working": 469, "▁10": 470, "▁same": 471, "▁many": 472, "保护": 473, "确保": 474, "▁gender": 475, "▁good": 476, "▁There": 477, "措施": 478, "同": 479, "\"": 480, "▁June": 481, "▁violence": 482, "▁way": 483, "▁view": 484, "▁World": 485, "政策": 486, "法律": 487, "▁present": 488, "▁see": 489, "er": 490, "▁global": 491, "▁4.": 492, "▁want": 493, "th": 494, "服务": 495, "▁3": 496, "内": 497, "吧": 498, "▁she": 499, "管理": 500, "号": 501, "▁Economic": 502, "审查": 503, "建立": 504, "▁appropriate": 505, "▁technical": 506, "特别是": 507, "▁But": 508, "▁E": 509, "▁nuclear": 510, "决定": 511, "▁three": 512, "大会": 513, "把": 514, "▁us": 515, "实施": 516, "这": 517, "这种": 518, "▁Social": 519, "▁budget": 520, "获得": 521, "▁item": 522, "▁full": 523, "即": 524, "▁Board": 525, "▁set": 526, "▁necessary": 527, "18": 528, "▁how": 529, "▁basis": 530, "▁African": 531, "ly": 532, "加强": 533, "的人": 534, "▁因此": 535, "▁institutions": 536, "▁without": 537, "▁《": 538, "▁case": 539, "任何": 540, "努力": 541, "社会": 542, "能": 543, "▁possible": 544, "▁place": 545, "):": 546, "增加": 547, "日至": 548, "款": 549, "▁million": 550, "y": 551, "采取": 552, "至": 553, "▁关于": 554, "▁National": 555, "计划": 556, "提出": 557, "▁groups": 558, "P": 559, "▁after": 560, "大": 561, "▁think": 562, "▁provisions": 563, "▁got": 564, "▁meetings": 565, "及其": 566, "▁cases": 567, "儿童": 568, "▁since": 569, "▁All": 570, "里": 571, "▁policies": 572, "▁July": 573, "▁consideration": 574, "▁general": 575, "▁Working": 576, "g": 577, "▁needs": 578, "▁此外": 579, "▁5.": 580, "的工作": 581, "▁For": 582, "区域": 583, "▁On": 584, "▁very": 585, "▁upon": 586, "能够": 587, "▁include": 588, "开展": 589, "▁end": 590, "Add": 591, "战略": 592, "实现": 593, "f": 594, "▁data": 595, "解决": 596, "▁concerned": 597, "▁while": 598, "▁trade": 599, "去": 600, "▁Court": 601, "▁local": 602, "▁issue": 603, "▁account": 604, "▁each": 605, "17": 606, "以便": 607, "一些": 608, "▁framework": 609, "▁high": 610, "▁available": 611, "新的": 612, "▁她": 613, "▁So": 614, "各": 615, "▁used": 616, "▁back": 617, "▁5": 618, "▁D": 619, "B": 620, "Z": 621, "▁She": 622, "教育": 623, "▁New": 624, "▁region": 625, "▁Oh": 626, "特别": 627, "▁increase": 628, "▁Yeah": 629, "确定": 630, "讨论": 631, "Q": 632, "更": 633, "▁noted": 634, "▁Fund": 635, "▁4": 636, "前": 637, "▁proposed": 638, "▁group": 639, "▁European": 640, "用": 641, "▁May": 642, "因为": 643, "▁importance": 644, "▁area": 645, "期间": 646, "技术": 647, "▁humanitarian": 648, "▁Secretariat": 649, "14": 650, "▁considered": 651, "▁8": 652, "▁based": 653, "▁Women": 654, "其他": 655, "▁society": 656, "▁delegation": 657, "▁address": 658, "▁promote": 659, "▁September": 660, "▁submitted": 661, "机制": 662, "▁15": 663, "▁conflict": 664, "▁developed": 665, "的国家": 666, "审议": 667, "13": 668, "系统": 669, "新": 670, "▁Action": 671, "▁6.": 672, "给": 673, "参加": 674, "利用": 675, "25": 676, "得到": 677, "缔约国": 678, "▁particularly": 679, "▁Union": 680, "▁November": 681, "▁participation": 682, "安全": 683, "▁life": 684, "▁If": 685, "▁resolutions": 686, "的问题": 687, "▁sustainable": 688, "▁6": 689, "说明": 690, "▁October": 691, "▁poverty": 692, "提交": 693, "▁child": 694, "or": 695, "减少": 696, "▁because": 697, "多": 698, "▁bodies": 699, "▁plan": 700, "16": 701, "的情况": 702, "▁sector": 703, "▁document": 704, "n": 705, "和其他": 706, "▁30": 707, "▁levels": 708, "人员": 709, "2005": 710, "▁note": 711, "▁specific": 712, "人权": 713, "al": 714, "其中": 715, "▁Article": 716, "▁going": 717, "调查": 718, "▁9": 719, "啊": 720, "▁help": 721, "▁12": 722, "▁Mission": 723, "19": 724, "▁field": 725, "▁long": 726, "全球": 727, "指出": 728, "正在": 729, "▁required": 730, "31": 731, "▁current": 732, "▁come": 733, "▁still": 734, "▁weapons": 735, "呢": 736, "▁project": 737, "23": 738, "▁Department": 739, "▁agencies": 740, "▁future": 741, "斯": 742, "▁civil": 743, "资源": 744, "文件": 745, "如": 746, "▁requirements": 747, "这个": 748, "具有": 749, "制定": 750, "研究": 751, "支助": 752, "▁military": 753, "秘书处": 754, "22": 755, "▁Declaration": 756, "好": 757, "作出": 758, "▁requested": 759, "▁operations": 760, "▁various": 761, "▁Law": 762, "并且": 763, "▁Governments": 764, "▁authorities": 765, "领域": 766, "in": 767, "▁不": 768, "up": 769, "▁20": 770, "▁context": 771, "评估": 772, "涉及": 773, "21": 774, "▁additional": 775, "▁March": 776, "得": 777, "D": 778, "▁addition": 779, "本": 780, "而且": 781, "程序": 782, "国": 783, "▁2005": 784, "24": 785, "影响": 786, "▁7.": 787, "▁p": 788, "▁这": 789, "接受": 790, "中心": 791, "▁means": 792, "▁委员会": 793, "▁High": 794, "负责": 795, "▁control": 796, "嗎": 797, "▁representatives": 798, "▁7": 799, "▁agreed": 800, "▁then": 801, "▁police": 802, "▁even": 803, "▁Protocol": 804, "进一步": 805, "▁根据": 806, "▁contained": 807, "各国": 808, "2000": 809, "▁South": 810, "▁down": 811, "▁Report": 812, "比": 813, "▁mandate": 814, "▁towards": 815, "▁given": 816, "工作组": 817, "之后": 818, "▁However": 819, "▁April": 820, "自": 821, "▁18": 822, "▁concern": 823, "▁impact": 824, "▁above": 825, "▁approach": 826, "▁representative": 827, "▁continued": 828, "I": 829, "▁11": 830, "▁change": 831, "28": 832, "▁family": 833, "▁projects": 834, "CN": 835, "▁conditions": 836, "见": 837, "▁attention": 838, "o": 839, "2004": 840, "2006": 841, "目标": 842, "▁Rapporteur": 843, "▁population": 844, "▁does": 845, "协助": 846, "▁Affairs": 847, "能力": 848, "工作人员": 849, "2002": 850, "子": 851, "2001": 852, "各种": 853, "主要": 854, "标准": 855, "▁organization": 856, "▁give": 857, ".1": 858, "分": 859, "▁对": 860, "2003": 861, "安全理事会": 862, "▁request": 863, "最": 864, "的权利": 865, "27": 866, ")、": 867, "▁member": 868, "▁concerning": 869, "▁status": 870, "秘书长": 871, "▁private": 872, "之": 873, "之间": 874, "出": 875, "协调": 876, "▁major": 877, "▁但是": 878, "▁establishment": 879, "信息": 880, "表示": 881, "理事会": 882, "成员": 883, "无": 884, "条约": 885, "环境": 886, "▁Well": 887, "安排": 888, "▁relating": 889, "▁January": 890, "考虑": 891, "▁2006": 892, "过": 893, "▁discrimination": 894, "因此": 895, "▁say": 896, "▁statement": 897, "▁gonna": 898, "see": 899, "▁rules": 900, "它们": 901, "援助": 902, "▁consider": 903, "想": 904, "▁justice": 905, "▁How": 906, "▁8.": 907, "on": 908, "拉": 909, "▁care": 910, "地区": 911, "▁19": 912, "主席": 913, "26": 914, "▁Palestinian": 915, "▁comprehensive": 916, "▁second": 917, "▁better": 918, "▁question": 919, "—": 920, "制度": 921, "是否": 922, "▁force": 923, "特": 924, "▁2000": 925, "▁total": 926, "因": 927, "▁legislation": 928, "▁entitled": 929, "▁own": 930, "▁2002": 931, "▁monitoring": 932, "▁2004": 933, "▁provision": 934, "▁reporting": 935, "▁systems": 936, "▁taking": 937, "应当": 938, "2007": 939, "受": 940, "▁whether": 941, "▁inter": 942, "2008": 943, "▁expressed": 944, "▁strengthen": 945, "▁coordination": 946, "做": 947, "▁received": 948, "▁F": 949, "政治": 950, "▁domestic": 951, "▁men": 952, "▁addressed": 953, "权利": 954, "世界": 955, "▁Yes": 956, "举行": 957, "之前": 958, "培训": 959, "▁2003": 960, "▁much": 961, "▁existing": 962, "▁different": 963, "▁mechanisms": 964, "▁implement": 965, "▁Executive": 966, "▁responsibility": 967, "▁II": 968, "29": 969, "部门": 970, "▁armed": 971, "▁result": 972, "▁16": 973, "▁therefore": 974, "▁practices": 975, "请": 976, "▁increased": 977, "▁especially": 978, "开始": 979, "▁last": 980, "▁costs": 981, "有关的": 982, "▁annex": 983, "▁man": 984, "▁Act": 985, "▁too": 986, "提高": 987, "▁如果": 988, "▁principles": 989, "共同": 990, "▁technology": 991, "▁14": 992, "▁Arab": 993, "点": 994, "▁included": 995, "▁procedures": 996, "▁obligations": 997, "▁13": 998, "帮助": 999, "未": 1000, "代表团": 1001, "很": 1002, "%": 1003, "▁9.": 1004, "按照": 1005, "对于": 1006, "▁fully": 1007, "费用": 1008, "法院": 1009, "▁personnel": 1010, "▁results": 1011, "▁2007": 1012, "行为": 1013, "的建议": 1014, "公司": 1015, "强调": 1016, "▁might": 1017, "▁2008": 1018, "目前": 1019, "方式": 1020, "▁key": 1021, "受到": 1022, "什么": 1023, "外": 1024, "▁rule": 1025, "水": 1026, "▁他们": 1027, "用于": 1028, "▁17": 1029, "▁standards": 1030, "如果": 1031, "▁water": 1032, "▁criminal": 1033, "时间": 1034, "德": 1035, "▁adoption": 1036, "▁small": 1037, "▁terms": 1038, "▁subject": 1039, "▁fact": 1040, "应该": 1041, "▁2001": 1042, "资料": 1043, "成为": 1044, "部分": 1045, "▁regarding": 1046, "▁These": 1047, "▁environment": 1048, "小组": 1049, "发言": 1050, "▁funds": 1051, "▁already": 1052, "▁000": 1053, "中的": 1054, "▁Representative": 1055, "原则": 1056, "承诺": 1057, "▁31": 1058, "方面的": 1059, "自己": 1060, "▁contributions": 1061, "é": 1062, "▁day": 1063, "▁With": 1064, "*": 1065, "如何": 1066, "▁improve": 1067, "不能": 1068, "▁follow": 1069, "高": 1070, "▁peacekeeping": 1071, "▁challenges": 1072, "协定": 1073, "由于": 1074, "人民": 1075, "则": 1076, "▁My": 1077, "▁agreement": 1078, "非洲": 1079, "▁decided": 1080, "▁Ministry": 1081, "小": 1082, "▁risk": 1083, "承认": 1084, "那": 1085, "▁consultations": 1086, "▁但": 1087, "▁providing": 1088, "▁response": 1089, "▁person": 1090, "女士": 1091, "▁strengthening": 1092, "▁called": 1093, "based": 1094, "▁Come": 1095, "▁secretariat": 1096, "希望": 1097, "▁是": 1098, "▁decisions": 1099, "资金": 1100, "非": 1101, "▁August": 1102, "家庭": 1103, "▁indigenous": 1104, "▁together": 1105, "又": 1106, "▁terrorism": 1107, "▁food": 1108, "▁best": 1109, "数据": 1110, "▁commitment": 1111, "▁victims": 1112, "▁Advisory": 1113, "▁10.": 1114, "基金": 1115, "h": 1116, "预算": 1117, "▁call": 1118, "同时": 1119, "鼓励": 1120, "▁post": 1121, "▁off": 1122, "▁HIV": 1123, "▁least": 1124, "▁service": 1125, "▁behalf": 1126, "▁disarmament": 1127, "▁America": 1128, "un": 1129, "governmental": 1130, "▁de": 1131, "▁Let": 1132, "▁amount": 1133, "着": 1134, "部": 1135, "让": 1136, "科": 1137, "▁assessment": 1138, "▁environmental": 1139, "▁Do": 1140, "无法": 1141, "一项": 1142, "▁February": 1143, "办法": 1144, "building": 1145, "▁example": 1146, "▁initiatives": 1147, "▁Iraq": 1148, "▁put": 1149, "r": 1150, "▁government": 1151, "▁*": 1152, "▁due": 1153, "注意到": 1154, "▁matter": 1155, "完成": 1156, "▁recent": 1157, "▁mission": 1158, "▁five": 1159, "▁prevention": 1160, "全面": 1161, "会员国": 1162, "▁Israel": 1163, "▁Why": 1164, "项": 1165, "▁develop": 1166, "▁another": 1167, "具体": 1168, "▁provides": 1169, "▁Hey": 1170, "F": 1171, "和平": 1172, "▁reported": 1173, "▁several": 1174, "▁dialogue": 1175, "▁meet": 1176, "化": 1177, "的能力": 1178, "克": 1179, "▁took": 1180, "▁every": 1181, "权": 1182, "▁G": 1183, "以色列": 1184, "天": 1185, "▁actions": 1186, "▁...": 1187, "的影响": 1188, "相关": 1189, "▁space": 1190, "▁equality": 1191, "▁common": 1192, "▁never": 1193, "▁significant": 1194, "▁little": 1195, "▁strategy": 1196, "采用": 1197, "按": 1198, "家": 1199, "改善": 1200, "▁land": 1201, "▁East": 1202, "▁four": 1203, "▁11.": 1204, "▁Service": 1205, "▁Ms": 1206, "1999": 1207, "以下": 1208, "▁cost": 1209, "▁again": 1210, "▁application": 1211, "▁problems": 1212, "二": 1213, "方法": 1214, "那些": 1215, "▁reform": 1216, "▁missions": 1217, "▁22": 1218, "▁really": 1219, "▁matters": 1220, "▁look": 1221, "▁next": 1222, "▁trafficking": 1223, "▁done": 1224, "▁lack": 1225, "例如": 1226, "es": 1227, "▁documents": 1228, "▁something": 1229, "不是": 1230, "2009": 1231, "▁am": 1232, "再": 1233, "▁21": 1234, "特派团": 1235, "▁requests": 1236, "▁这些": 1237, "▁arms": 1238, "▁联合国": 1239, "框架": 1240, "尤其是": 1241, "▁peoples": 1242, "三": 1243, "▁然而": 1244, "▁establish": 1245, "设立": 1246, "’": 1247, "▁UNDP": 1248, "▁regular": 1249, "推动": 1250, "▁biennium": 1251, "针对": 1252, "的活动": 1253, "▁found": 1254, "▁promotion": 1255, "同意": 1256, "监测": 1257, "▁它": 1258, "批准": 1259, "▁para": 1260, "▁Permanent": 1261, "▁business": 1262, "作": 1263, "▁crime": 1264, "手": 1265, "▁tell": 1266, "▁Information": 1267, "投资": 1268, "保证": 1269, "改革": 1270, "▁girls": 1271, "发生": 1272, ")(": 1273, "美国": 1274, "▁planning": 1275, "▁12.": 1276, "▁practice": 1277, "▁25": 1278, "▁doing": 1279, "▁acts": 1280, "处": 1281, "term": 1282, "▁main": 1283, "的所有": 1284, "▁cultural": 1285, "▁didn": 1286, "▁employment": 1287, "▁focus": 1288, "▁priority": 1289, "▁One": 1290, "联合": 1291, "▁While": 1292, "▁needed": 1293, "▁re": 1294, "起": 1295, "▁那": 1296, "的情况下": 1297, "利": 1298, "▁find": 1299, "限制": 1300, "提供了": 1301, "▁administrative": 1302, "▁Don": 1303, "▁research": 1304, "尔": 1305, "▁course": 1306, "▁Commissioner": 1307, "宪法": 1308, "▁Okay": 1309, "▁China": 1310, "▁Millennium": 1311, "禁止": 1312, "▁为": 1313, "▁problem": 1314, "▁growth": 1315, "在其": 1316, "▁23": 1317, "▁procedure": 1318, "▁funding": 1319, "▁violations": 1320, "有效": 1321, "制订": 1322, "▁recommended": 1323, "你的": 1324, "2010": 1325, "网络": 1326, "▁serious": 1327, "▁third": 1328, "▁Democratic": 1329, "▁great": 1330, "提出的": 1331, "▁sexual": 1332, "M": 1333, "▁mean": 1334, "▁partners": 1335, "▁prevent": 1336, "个人": 1337, "▁yet": 1338, "不同": 1339, "卡": 1340, "▁Panel": 1341, "▁operational": 1342, "▁请": 1343, "▁strategies": 1344, "▁agreements": 1345, "▁treaty": 1346, "▁clear": 1347, "▁Director": 1348, "选举": 1349, "你们": 1350, "人口": 1351, "进程": 1352, "▁around": 1353, "▁discussion": 1354, "▁2009": 1355, "l": 1356, "专家": 1357, "▁Treaty": 1358, "▁我們": 1359, "直接": 1360, "40": 1361, "[": 1362, "▁treatment": 1363, "▁24": 1364, "▁instruments": 1365, "现在": 1366, "表明": 1367, ";(": 1368, "▁forces": 1369, "论坛": 1370, "▁reduction": 1371, "▁statements": 1372, "▁annual": 1373, "▁1999": 1374, "条件": 1375, "▁promoting": 1376, "▁achieve": 1377, "了解": 1378, "区": 1379, "▁Covenant": 1380, "▁就": 1381, "▁however": 1382, "看": 1383, "▁responsible": 1384, "伊拉克": 1385, "▁Chairman": 1386, "▁Centre": 1387, "▁let": 1388, "▁office": 1389, "分析": 1390, "造成": 1391, "西": 1392, "许多": 1393, "的规定": 1394, "▁有": 1395, "办公室": 1396, "合同": 1397, "▁involved": 1398, "之间的": 1399, "▁committed": 1400, "G": 1401, "作用": 1402, "任务": 1403, "就是": 1404, "▁past": 1405, "▁equipment": 1406, "打": 1407, "▁Division": 1408, "▁light": 1409, "▁implementing": 1410, "完全": 1411, "▁section": 1412, "经": 1413, "▁list": 1414, "▁::": 1415, "▁laws": 1416, "▁production": 1417, "▁become": 1418, "仍然": 1419, "▁notes": 1420, "走": 1421, "▁objectives": 1422, "▁organized": 1423, "▁property": 1424, "消除": 1425, "履行": 1426, "警察": 1427, "▁dated": 1428, "▁Tribunal": 1429, "▁13.": 1430, "贸易": 1431, "安理会": 1432, "level": 1433, "阿": 1434, "▁performance": 1435, "防止": 1436, "规则": 1437, "▁home": 1438, "上述": 1439, "▁awareness": 1440, "▁aimed": 1441, "立法": 1442, "次": 1443, "▁rate": 1444, "▁Where": 1445, "国际社会": 1446, "▁Minister": 1447, "▁date": 1448, "我們": 1449, "▁steps": 1450, "冲突": 1451, "但是": 1452, "▁position": 1453, "”,": 1454, "改进": 1455, "发": 1456, "正": 1457, "▁adequate": 1458, "▁open": 1459, "▁由于": 1460, "▁certain": 1461, "50": 1462, "▁pursuant": 1463, "草案": 1464, "取得": 1465, "▁Asia": 1466, "尼": 1467, "▁facilitate": 1468, "▁forms": 1469, "▁believe": 1470, "▁supported": 1471, "▁previous": 1472, "▁individual": 1473, "▁living": 1474, "▁Other": 1475, "恢复": 1476, "▁why": 1477, "请求": 1478, "▁official": 1479, "加入": 1480, "▁Central": 1481, "▁approved": 1482, "▁d": 1483, "的一个": 1484, "纳入": 1485, "▁free": 1486, "▁communities": 1487, "▁M": 1488, "▁knowledge": 1489, "▁author": 1490, "▁14.": 1491, "▁joint": 1492, "▁An": 1493, "▁God": 1494, "te": 1495, "▁2010": 1496, "▁plans": 1497, "▁school": 1498, "▁V": 1499, "▁posts": 1500, "收入": 1501, "▁investment": 1502, "▁form": 1503, "自由": 1504, "▁early": 1505, "▁energy": 1506, "知道": 1507, "u": 1508, "▁purpose": 1509, "▁able": 1510, "▁days": 1511, "扩大": 1512, "▁Criminal": 1513, "tergovernmental": 1514, "▁28": 1515, "马": 1516, "▁strategic": 1517, "▁proposals": 1518, "发展中国家": 1519, "——": 1520, "▁interest": 1521, "▁enhance": 1522, "事": 1523, "保障": 1524, "▁assist": 1525, "▁income": 1526, "司法": 1527, "▁Charter": 1528, "▁essential": 1529, "▁understanding": 1530, "举行的": 1531, "进行了": 1532, "▁greater": 1533, "控制": 1534, "倡议": 1535, "▁recommendation": 1536, "▁Agenda": 1537, "非政府组织": 1538, "▁issued": 1539, "▁在这方面": 1540, "▁H": 1541, "▁self": 1542, "业务": 1543, "适当": 1544, "▁Trade": 1545, "来自": 1546, "非常": 1547, "▁communication": 1548, "欢迎": 1549, "▁analysis": 1550, "▁principle": 1551, "▁wish": 1552, "心": 1553, "to": 1554, "下列": 1555, "▁implemented": 1556, "▁age": 1557, "谈判": 1558, "▁ensuring": 1559, "选择": 1560, "▁offices": 1561, "▁Bank": 1562, "▁Plan": 1563, "▁arrangements": 1564, "▁Review": 1565, "我的": 1566, "当局": 1567, "▁carried": 1568, "保留": 1569, "》(": 1570, "▁T": 1571, "只": 1572, "长期": 1573, "▁having": 1574, "▁expected": 1575, "▁experts": 1576, "▁evaluation": 1577, "拥有": 1578, "1998": 1579, "▁equal": 1580, "▁Implementation": 1581, "T": 1582, "▁Kingdom": 1583, "▁potential": 1584, "▁undertaken": 1585, "▁line": 1586, "综合": 1587, "▁Russian": 1588, "▁large": 1589, "法官": 1590, "充分": 1591, "社区": 1592, "方": 1593, "▁foreign": 1594, "▁15.": 1595, "▁text": 1596, "遵守": 1597, "▁UN": 1598, "▁protect": 1599, "表": 1600, "en": 1601, "▁stated": 1602, "注意": 1603, "民主": 1604, "结果": 1605, "▁goals": 1606, "▁Geneva": 1607, "▁His": 1608, "内容": 1609, "协议": 1610, "▁contribute": 1611, "▁prepared": 1612, "▁affected": 1613, "▁guidelines": 1614, "威胁": 1615, "▁basic": 1616, "▁Federation": 1617, "加": 1618, "犯罪": 1619, "▁Summit": 1620, "▁opportunities": 1621, "▁K": 1622, "▁27": 1623, "▁until": 1624, "确认": 1625, "▁study": 1626, "最近": 1627, "▁Global": 1628, "通知": 1629, "▁York": 1630, "成员国": 1631, "▁fundamental": 1632, "的方式": 1633, "缺乏": 1634, "▁financing": 1635, "▁making": 1636, "▁conduct": 1637, "号决定": 1638, "▁months": 1639, "▁Israeli": 1640, "▁others": 1641, "存在": 1642, "协会": 1643, "一样": 1644, "▁proposal": 1645, "的是": 1646, "▁informed": 1647, "▁market": 1648, "▁far": 1649, "▁nature": 1650, "▁facilities": 1651, "▁26": 1652, "H": 1653, "▁aspects": 1654, "來": 1655, "▁vote": 1656, "▁today": 1657, "▁fifty": 1658, "阶段": 1659, "▁processes": 1660, "▁Management": 1661, "行": 1662, "万美元": 1663, "▁building": 1664, "▁delegations": 1665, "生": 1666, "法庭": 1667, "▁rural": 1668, "▁body": 1669, "企业": 1670, "事务": 1671, "▁Justice": 1672, "达": 1673, "▁mechanism": 1674, "▁bring": 1675, "▁R": 1676, "题为": 1677, "▁exchange": 1678, "▁Cooperation": 1679, "▁money": 1680, "宣布": 1681, "开": 1682, "案件": 1683, "义务": 1684, "▁point": 1685, "▁climate": 1686, "节": 1687, "更加": 1688, "▁16.": 1689, "▁natural": 1690, "机会": 1691, "▁Forum": 1692, "▁independent": 1693, "▁limited": 1694, "▁individuals": 1695, "局": 1696, "▁During": 1697, "各项": 1698, "▁war": 1699, "的第": 1700, "AC": 1701, "成": 1702, "▁manner": 1703, "导致": 1704, "适用": 1705, "▁quality": 1706, "▁six": 1707, "▁一": 1708, "▁whole": 1709, "宣言": 1710, "▁recommends": 1711, "符合": 1712, "其中包括": 1713, "▁1998": 1714, "一种": 1715, "▁evidence": 1716, "条第": 1717, "难民": 1718, "▁这是": 1719, "关系": 1720, "▁leave": 1721, "地方": 1722, "▁commitments": 1723, "▁Meeting": 1724, "AIDS": 1725, "▁currently": 1726, "▁opportunity": 1727, "状况": 1728, "重要": 1729, "万": 1730, "▁thus": 1731, "▁negotiations": 1732, "▁always": 1733, "▁Now": 1734, "K": 1735, "▁authority": 1736, ".2": 1737, "▁Non": 1738, "▁often": 1739, "▁是的": 1740, "▁love": 1741, "从而": 1742, "供": 1743, "▁labour": 1744, "▁When": 1745, "艾滋病": 1746, "生产": 1747, "落实": 1748, "重新": 1749, "▁L": 1750, "一直": 1751, "巴": 1752, "责任": 1753, "▁questions": 1754, "呼吁": 1755, "▁workers": 1756, "给予": 1757, "▁play": 1758, "▁该": 1759, "▁Support": 1760, "▁act": 1761, "▁increasing": 1762, "▁benefits": 1763, "的任何": 1764, "并在": 1765, "▁effect": 1766, "重申": 1767, "▁recognized": 1768, "死": 1769, "办事处": 1770, "k": 1771, "缔约方": 1772, "实行": 1773, "期": 1774, "两个": 1775, "实际": 1776, "▁contribution": 1777, "▁29": 1778, "部队": 1779, "某些": 1780, "市场": 1781, "▁concerns": 1782, "an": 1783, "▁transfer": 1784, "非法": 1785, "违反": 1786, "文化": 1787, "独立": 1788, "▁officials": 1789, "▁Is": 1790, "▁functions": 1791, "▁alia": 1792, "恐怖主义": 1793, "▁referred": 1794, "▁Congo": 1795, "▁entities": 1796, "▁好": 1797, "关注": 1798, "▁submit": 1799, "▁forward": 1800, "▁17.": 1801, "或者": 1802, "▁name": 1803, "特别报告员": 1804, "▁Crime": 1805, "▁remain": 1806, "头": 1807, "▁close": 1808, "▁thing": 1809, "保持": 1810, "▁away": 1811, "▁主席": 1812, "▁young": 1813, "2011": 1814, "▁letter": 1815, "▁Agreement": 1816, "享有": 1817, "▁crimes": 1818, "▁Under": 1819, "▁III": 1820, "▁below": 1821, "▁crisis": 1822, "重": 1823, "說": 1824, "▁articles": 1825, "▁outcome": 1826, "积极": 1827, "员额": 1828, "▁从": 1829, "▁People": 1830, "▁final": 1831, "▁Code": 1832, "数": 1833, "▁18.": 1834, "严重": 1835, "▁freedom": 1836, "▁presented": 1837, "进入": 1838, "▁multilateral": 1839, "▁Al": 1840, "这是": 1841, "▁connection": 1842, "▁cannot": 1843, "▁remains": 1844, "应对": 1845, "达到": 1846, "▁integrated": 1847, "▁media": 1848, "▁通过": 1849, "▁refugees": 1850, "成果": 1851, "学校": 1852, "当地": 1853, "▁UNCTAD": 1854, "▁Some": 1855, "▁Sudan": 1856, "▁value": 1857, "意见": 1858, "▁claims": 1859, "▁overall": 1860, "出现": 1861, "the": 1862, "旨在": 1863, "▁experience": 1864, "公民": 1865, "的主要": 1866, "▁informal": 1867, "▁2011": 1868, "还是": 1869, "▁communications": 1870, "中国": 1871, "危机": 1872, "城市": 1873, "▁Annex": 1874, "▁identified": 1875, "▁provisional": 1876, "▁为了": 1877, "▁Please": 1878, "力": 1879, "▁Are": 1880, "▁conducted": 1881, "不会": 1882, "行动计划": 1883, "协商": 1884, "▁exercise": 1885, "预防": 1886, "▁reference": 1887, "议定书": 1888, "纳": 1889, "结束": 1890, "评价": 1891, "两": 1892, "45": 1893, "当": 1894, "如下": 1895, "明确": 1896, "related": 1897, "▁purposes": 1898, "是一个": 1899, "▁sessions": 1900, "军事": 1901, "艾滋病毒": 1902, "”.": 1903, "尽管": 1904, "會": 1905, "▁real": 1906, "▁Just": 1907, "▁Unit": 1908, "工具": 1909, "一起": 1910, "▁court": 1911, "▁items": 1912, "手段": 1913, "而言": 1914, "产生": 1915, "介绍": 1916, "▁preparation": 1917, "挑战": 1918, "▁participate": 1919, "的法律": 1920, "▁infrastructure": 1921, "全国": 1922, "▁Regional": 1923, "▁paragraphs": 1924, "▁changes": 1925, "条款": 1926, "从事": 1927, "▁pay": 1928, "支付": 1929, "▁conference": 1930, "都是": 1931, "一次": 1932, "▁territory": 1933, "60": 1934, "该国": 1935, "▁death": 1936, "的重要性": 1937, "▁19.": 1938, "▁虽然": 1939, "2012": 1940, "▁substantive": 1941, "st": 1942, "▁drug": 1943, "▁institutional": 1944, "▁enforcement": 1945, "▁governance": 1946, "四": 1947, "生活": 1948, "▁Europe": 1949, "▁尽管": 1950, "也是": 1951, "▁compliance": 1952, "才": 1953, "此类": 1954, "▁officers": 1955, "▁power": 1956, "占": 1957, ".\"": 1958, "做法": 1959, "准则": 1960, "性别": 1961, "▁few": 1962, "▁N": 1963, "准备": 1964, "将在": 1965, "▁views": 1966, "▁mind": 1967, "现有": 1968, "▁primary": 1969, "的努力": 1970, "的目标": 1971, "▁ongoing": 1972, "联盟": 1973, "开发": 1974, "打击": 1975, "▁Protection": 1976, "▁achieved": 1977, "年度": 1978, "总统": 1979, "就业": 1980, "▁Section": 1981, "▁return": 1982, "国内": 1983, "▁UNICEF": 1984, "武器": 1985, "以来": 1986, "▁okay": 1987, "35": 1988, "▁direct": 1989, "▁大会": 1990, "允许": 1991, "加以": 1992, "▁Public": 1993, "▁internal": 1994, "证明": 1995, "▁resource": 1996, "▁safety": 1997, "予以": 1998, "▁Institute": 1999, "列入": 2000, "▁state": 2001, "▁enable": 2002, "对话": 2003, "▁Recalling": 2004, "均": 2005, "的行为": 2006, "仍": 2007, "▁Japan": 2008, "▁proceedings": 2009, "▁judicial": 2010, "改变": 2011, "核": 2012, "▁detention": 2013, "▁indicated": 2014, "▁Health": 2015, "▁effectively": 2016, "尊重": 2017, "year": 2018, "▁20.": 2019, "长": 2020, "格": 2021, "▁integration": 2022, "▁former": 2023, "▁medical": 2024, "▁low": 2025, "▁See": 2026, "▁O": 2027, "▁combat": 2028, "▁less": 2029, "▁expert": 2030, "▁keep": 2031, "▁positive": 2032, "量": 2033, "▁2012": 2034, "管制": 2035, "org": 2036, "记录": 2037, "文": 2038, "维持": 2039, "采取行动": 2040, "▁regions": 2041, "附件": 2042, "▁Agency": 2043, "▁situations": 2044, "▁Not": 2045, "的作用": 2046, "正式": 2047, "▁reduce": 2048, "事件": 2049, "拟订": 2050, "▁objective": 2051, "▁lead": 2052, "之一": 2053, "亿美元": 2054, "日本": 2055, "大学": 2056, "▁things": 2057, "职能": 2058, "▁Political": 2059, "司": 2060, "议会": 2061, "▁{\\": 2062, "次会议": 2063, "▁share": 2064, "▁Afghanistan": 2065, "▁met": 2066, "▁50": 2067, "因素": 2068, "内部": 2069, "▁kind": 2070, "为了": 2071, "间": 2072, "法国": 2073, "这样": 2074, "▁Since": 2075, "▁21.": 2076, "自己的": 2077, "行政": 2078, "▁sorry": 2079, "发现": 2080, "只有": 2081, "▁circumstances": 2082, "▁un": 2083, "▁material": 2084, "▁initiative": 2085, "青年": 2086, "▁economy": 2087, "进展": 2088, "▁administration": 2089, "▁revised": 2090, "▁hours": 2091, "▁Who": 2092, "以确保": 2093, "实体": 2094, "▁b": 2095, "授权": 2096, "▁ever": 2097, "▁improving": 2098, "N": 2099, "风险": 2100, "▁once": 2101, "▁centres": 2102, "统计": 2103, "的资料": 2104, "▁assets": 2105, "▁families": 2106, "▁higher": 2107, "材料": 2108, "联系": 2109, "▁hope": 2110, "▁active": 2111, "▁using": 2112, "伙伴": 2113, "基本": 2114, "登记": 2115, "规划": 2116, "伙伴关系": 2117, "▁Children": 2118, "相关的": 2119, "▁Also": 2120, "亚": 2121, "▁effects": 2122, "▁effort": 2123, "▁critical": 2124, "▁allow": 2125, "▁benefit": 2126, "的信息": 2127, "调整": 2128, "▁thought": 2129, "▁left": 2130, "欧洲": 2131, "组": 2132, "▁Canada": 2133, "总": 2134, "担任": 2135, "▁discussions": 2136, "需求": 2137, "运动": 2138, "约": 2139, "受害者": 2140, "▁brought": 2141, "▁participants": 2142, "最不发达国家": 2143, "\\": 2144, "的其他": 2145, "p": 2146, "▁throughout": 2147, "曾": 2148, "日在": 2149, "临时": 2150, "▁welcomed": 2151, "女": 2152, "▁First": 2153, "▁Services": 2154, "的决定": 2155, "指标": 2156, ".6": 2157, "▁calls": 2158, "▁Constitution": 2159, "设施": 2160, "▁不过": 2161, "面": 2162, "最后": 2163, "▁最后": 2164, "加拿大": 2165, "反对": 2166, "▁civilian": 2167, "▁elements": 2168, "▁Such": 2169, "▁prior": 2170, "▁indicators": 2171, "持续": 2172, "▁priorities": 2173, "车": 2174, "▁guidance": 2175, "▁itself": 2176, "残疾人": 2177, "▁Goals": 2178, "▁stakeholders": 2179, "▁night": 2180, "▁please": 2181, "两年期": 2182, "▁effectiveness": 2183, "考虑到": 2184, "太": 2185, "金": 2186, "▁Environment": 2187, "次会议上": 2188, "▁live": 2189, "▁Force": 2190, "岁": 2191, "▁ways": 2192, "范围": 2193, "基": 2194, "访问": 2195, "属于": 2196, "▁debt": 2197, "▁sure": 2198, "▁Can": 2199, "增长": 2200, "▁torture": 2201, "的要求": 2202, "▁现在": 2203, "健康": 2204, "ation": 2205, "暴力": 2206, "▁term": 2207, "▁sources": 2208, "▁Caribbean": 2209, "▁哦": 2210, "一切": 2211, "▁22.": 2212, "as": 2213, "尚未": 2214, "解释": 2215, "▁sectors": 2216, "议程项目": 2217, "▁Countries": 2218, "▁team": 2219, "▁Good": 2220, "▁40": 2221, "塔": 2222, "ers": 2223, "▁achieving": 2224, "提议": 2225, "申请": 2226, "▁outside": 2227, "重大": 2228, "man": 2229, "空间": 2230, "的意见": 2231, "▁whose": 2232, "▁poor": 2233, "▁anything": 2234, "▁2005,": 2235, "▁strong": 2236, "满足": 2237, "▁debate": 2238, "▁好吧": 2239, "▁regulations": 2240, "▁collaboration": 2241, "普遍": 2242, "▁terrorist": 2243, "▁我想": 2244, "农业": 2245, "▁require": 2246, "▁hand": 2247, "▁Peace": 2248, "提交人": 2249, "▁Get": 2250, "responsibilities": 2251, "案": 2252, "▁abuse": 2253, "V": 2254, "出口": 2255, "▁Go": 2256, ".5": 2257, "▁face": 2258, "▁Party": 2259, "决议草案": 2260, "`": 2261, "▁legislative": 2262, "率": 2263, "▁你们": 2264, "▁comments": 2265, "▁transport": 2266, "▁disabilities": 2267, "▁claim": 2268, "适当的": 2269, "▁table": 2270, "▁rates": 2271, "困难": 2272, "罗": 2273, "的机会": 2274, "编制": 2275, "条例": 2276, "▁Requests": 2277, "▁Look": 2278, "▁Korea": 2279, "国际法": 2280, "▁addressing": 2281, "构成": 2282, "O": 2283, "▁appreciation": 2284, "▁old": 2285, "▁Your": 2286, "▁range": 2287, "80": 2288, "不断": 2289, "▁23.": 2290, "70": 2291, "事项": 2292, "▁twenty": 2293, "▁technologies": 2294, "结构": 2295, "▁invited": 2296, "是在": 2297, "银行": 2298, "海": 2299, "▁developments": 2300, "▁introduced": 2301, "提出了": 2302, "▁continues": 2303, "找到": 2304, "▁Foreign": 2305, "▁2006,": 2306, "采购": 2307, "一份": 2308, "机": 2309, "le": 2310, "▁deal": 2311, "再次": 2312, ".3": 2313, "▁scope": 2314, "平等": 2315, "▁operation": 2316, "问题的": 2317, "局势": 2318, "全": 2319, "他的": 2320, "▁obligation": 2321, "▁either": 2322, "▁interests": 2323, ".4": 2324, "▁themselves": 2325, "的合作": 2326, "人们": 2327, "▁seen": 2328, "迅速": 2329, "▁India": 2330, "布": 2331, "收到": 2332, "议程": 2333, "▁estimated": 2334, "▁elections": 2335, "▁sixty": 2336, "▁fight": 2337, "▁told": 2338, "一名": 2339, "此": 2340, "▁extent": 2341, "▁continuing": 2342, "阿富汗": 2343, "在内的": 2344, "运输": 2345, "▁travel": 2346, "▁co": 2347, "▁soon": 2348, "▁vulnerable": 2349, "认识到": 2350, "的代表": 2351, "▁activity": 2352, "书": 2353, "▁later": 2354, "显示": 2355, "▁Civil": 2356, "▁Discrimination": 2357, "▁coming": 2358, "安": 2359, "▁peaceful": 2360, "补充": 2361, "德国": 2362, "人数": 2363, "▁2002,": 2364, "保健": 2365, "▁Sustainable": 2366, "▁delivery": 2367, "▁24.": 2368, "▁associated": 2369, "部署": 2370, "▁universal": 2371, "▁specialized": 2372, "移民": 2373, "支出": 2374, "37": 2375, "able": 2376, "▁materials": 2377, "决议": 2378, "没": 2379, "3.": 2380, "▁threat": 2381, "不得": 2382, "印度": 2383, "相": 2384, "费": 2385, "▁asked": 2386, "一下": 2387, "▁goods": 2388, "▁voluntary": 2389, "▁Headquarters": 2390, "此种": 2391, "五": 2392, "反": 2393, "♪": 2394, "单位": 2395, "▁要": 2396, "学": 2397, "▁according": 2398, "▁relation": 2399, "▁transition": 2400, "的时候": 2401, "▁includes": 2402, "▁France": 2403, "资产": 2404, "歧视": 2405, "▁sub": 2406, "▁例如": 2407, "▁periodic": 2408, "▁2003,": 2409, "土地": 2410, "▁Administrative": 2411, "Rev": 2412, "2013": 2413, "女性": 2414, "巴勒斯坦": 2415, "77": 2416, "▁2,": 2417, "▁By": 2418, "▁Disarmament": 2419, "▁identify": 2420, "▁2004,": 2421, "這": 2422, "却": 2423, "▁According": 2424, "低": 2425, "▁Draft": 2426, "▁1,": 2427, "▁plenary": 2428, "▁create": 2429, "这类": 2430, "▁2007,": 2431, "▁Child": 2432, "每年": 2433, "在这方面": 2434, ".7": 2435, "▁capital": 2436, "交流": 2437, "▁encourage": 2438, "▁apply": 2439, "▁treaties": 2440, "有助于": 2441, "水平": 2442, "▁Second": 2443, "程度": 2444, "▁rather": 2445, "▁show": 2446, "▁THE": 2447, "监督": 2448, "▁Joint": 2449, "▁什么": 2450, "▁schools": 2451, "科学": 2452, "▁25.": 2453, "▁hold": 2454, "39": 2455, "定期": 2456, "寻求": 2457, "▁methods": 2458, "36": 2459, "j": 2460, "▁talk": 2461, "▁won": 2462, "一般": 2463, "▁Education": 2464, "▁e": 2465, "▁maintenance": 2466, "▁Pacific": 2467, "33": 2468, "今后": 2469, "整个": 2470, "修改": 2471, "▁我要": 2472, "以英语发言": 2473, "▁contract": 2474, "们": 2475, "▁partnership": 2476, "森林": 2477, "财产": 2478, "经常": 2479, "本国": 2480, "90": 2481, "危险": 2482, "大会第": 2483, "像": 2484, "▁2008,": 2485, "▁Great": 2486, "▁1997": 2487, "他們": 2488, "▁adopt": 2489, "at": 2490, "修订": 2491, "▁establishing": 2492, "▁difficult": 2493, "瓦": 2494, "▁violation": 2495, "可持续发展": 2496, "集团": 2497, "▁paid": 2498, "▁displaced": 2499, "▁understand": 2500, "▁supporting": 2501, "别": 2502, "经费": 2503, "▁stability": 2504, "过程中": 2505, "回": 2506, "快": 2507, "设备": 2508, "▁events": 2509, "▁destruction": 2510, "▁2013": 2511, "统一": 2512, "▁aid": 2513, "做出": 2514, "联邦": 2515, "making": 2516, "物": 2517, "▁UNHCR": 2518, "▁Room": 2519, "▁100": 2520, "萨": 2521, "▁relations": 2522, "成功": 2523, "▁Cuba": 2524, "官员": 2525, "目的": 2526, "▁Furthermore": 2527, "▁anti": 2528, "人类": 2529, "▁move": 2530, "只是": 2531, "伊": 2532, "任择议定书": 2533, "▁job": 2534, "▁nothing": 2535, "▁26.": 2536, "0": 2537, "的措施": 2538, "的新": 2539, "▁build": 2540, "这项": 2541, "48": 2542, "▁Prevention": 2543, "▁encouraged": 2544, "检查": 2545, "▁2001,": 2546, "▁Thank": 2547, "带": 2548, "他们的": 2549, "1997": 2550, "能源": 2551, "的责任": 2552, "媒体": 2553, "老": 2554, "股": 2555, "▁follows": 2556, "▁2000,": 2557, "▁opinion": 2558, "▁American": 2559, "▁balance": 2560, "增强": 2561, "遭受": 2562, "55": 2563, "▁applicable": 2564, "▁came": 2565, "▁heard": 2566, "▁directly": 2567, "▁sent": 2568, "▁Mexico": 2569, "▁Latin": 2570, "▁consensus": 2571, "卫生": 2572, "▁improved": 2573, "▁Iran": 2574, "编写": 2575, "▁fund": 2576, "el": 2577, "▁jurisdiction": 2578, "▁consultation": 2579, "墨西哥": 2580, "▁Persons": 2581, "地位": 2582, "联合国系统": 2583, "▁compensation": 2584, "才能": 2585, "住": 2586, "的一部分": 2587, "▁similar": 2588, "致力于": 2589, "▁creation": 2590, "▁J": 2591, "损失": 2592, "▁applied": 2593, "▁emergency": 2594, "▁start": 2595, "”。": 2596, "米": 2597, "入": 2598, "有权": 2599, "▁actors": 2600, "进行的": 2601, "▁议程项目": 2602, "承担": 2603, "▁别": 2604, "提到": 2605, "▁hear": 2606, "领土": 2607, "2.": 2608, "工作的": 2609, "联": 2610, "各方": 2611, "32": 2612, "份": 2613, "J": 2614, "▁這": 2615, "▁complete": 2616, "▁investigation": 2617, "▁conferences": 2618, "▁achievement": 2619, "▁positions": 2620, "派": 2621, "▁27.": 2622, "▁Right": 2623, "▁UNEP": 2624, "": 2625, "有必要": 2626, "员": 2627, "R": 2628, "34": 2629, "公": 2630, "▁paper": 2631, "▁Optional": 2632, "总部": 2633, "对其": 2634, "吃": 2635, "若干": 2636, "迪": 2637, "跟": 2638, "任命": 2639, "立即": 2640, "的行动": 2641, "电话": 2642, "称": 2643, "的任务": 2644, "原因": 2645, "▁regime": 2646, "▁二": 2647, "▁Islamic": 2648, "更多": 2649, "▁receive": 2650, "感谢": 2651, "▁physical": 2652, "▁central": 2653, "恩": 2654, "▁language": 2655, "▁distribution": 2656, "缔约方会议": 2657, ".8": 2658, "的结果": 2659, "古巴": 2660, "▁Syrian": 2661, "▁Table": 2662, "公共": 2663, "▁religious": 2664, "ity": 2665, "▁Of": 2666, "CP": 2667, "▁respective": 2668, "年期间": 2669, "千年发展目标": 2670, "模式": 2671, "▁我是": 2672, "而不是": 2673, "▁air": 2674, "49": 2675, "举措": 2676, "▁reached": 2677, "来说": 2678, "▁1990": 2679, "▁led": 2680, "价值": 2681, "▁illicit": 2682, "▁practical": 2683, "位": 2684, "▁times": 2685, "▁loss": 2686, "▁products": 2687, "▁Kosovo": 2688, "▁citizens": 2689, "▁Elimination": 2690, "6.": 2691, "38": 2692, "共和国": 2693, "形式": 2694, "▁concluded": 2695, "1.": 2696, "▁points": 2697, "道": 2698, "▁across": 2699, "州": 2700, "号决议第": 2701, "证据": 2702, "▁partnerships": 2703, "▁implications": 2704, "▁economies": 2705, "▁housing": 2706, "▁所以": 2707, "今天": 2708, "▁feel": 2709, "▁28.": 2710, "的做法": 2711, "口": 2712, "的话": 2713, "ro": 2714, "47": 2715, "▁conflicts": 2716, "▁Lebanon": 2717, "战争": 2718, "行使": 2719, "▁permanent": 2720, "▁bilateral": 2721, "团体": 2722, "▁Germany": 2723, "基础设施": 2724, "ar": 2725, "▁structure": 2726, "▁courts": 2727, "专门": 2728, "声明": 2729, "索赔": 2730, "破坏": 2731, "▁c": 2732, "各国政府": 2733, "▁youth": 2734, "以前": 2735, "先": 2736, "▁West": 2737, "▁seek": 2738, "▁carry": 2739, "工业": 2740, "▁嘿": 2741, "南": 2742, "离开": 2743, "律师": 2744, "▁factors": 2745, "▁Coordination": 2746, "▁standard": 2747, "us": 2748, "▁Vienna": 2749, "▁words": 2750, "▁consistent": 2751, "▁core": 2752, "▁reflected": 2753, "转让": 2754, "▁ground": 2755, "基于": 2756, "▁judges": 2757, "经济及社会理事会": 2758, "1996": 2759, "▁accountability": 2760, "身": 2761, "▁Middle": 2762, "-3": 2763, "▁half": 2764, "▁pre": 2765, "且": 2766, "▁leaders": 2767, "▁Ireland": 2768, "▁illegal": 2769, "▁signed": 2770, "▁Territory": 2771, "▁enough": 2772, "▁procurement": 2773, "审计": 2774, "▁completed": 2775, "▁Administration": 2776, "▁还": 2777, "▁dollars": 2778, "黎巴嫩": 2779, "first": 2780, "▁initial": 2781, "托": 2782, "裁军": 2783, "▁settlement": 2784, "▁states": 2785, "范围内": 2786, "信": 2787, "所涉": 2788, "▁raised": 2789, "▁submission": 2790, "▁girl": 2791, "▁serve": 2792, "▁house": 2793, "情况下": 2794, "的政策": 2795, "索马里": 2796, "▁head": 2797, "▁自": 2798, "避免": 2799, "超过": 2800, "▁parts": 2801, "叫": 2802, "▁reasons": 2803, "▁这一": 2804, "46": 2805, "-4": 2806, "it": 2807, "住房": 2808, "页": 2809, "宗教": 2810, "▁efficiency": 2811, "▁29.": 2812, "▁French": 2813, "提": 2814, "有效的": 2815, "▁Nuclear": 2816, "▁requires": 2817, "产品": 2818, "最终": 2819, "会议室": 2820, "虽然": 2821, "共": 2822, "▁1995": 2823, "通": 2824, "贸发会议": 2825, "赔偿": 2826, "▁step": 2827, "▁thank": 2828, "文书": 2829, "▁majority": 2830, "▁beyond": 2831, "监狱": 2832, "的发展": 2833, "ii": 2834, "▁OF": 2835, "稳定": 2836, "知识": 2837, "日和": 2838, "▁record": 2839, "气候变化": 2840, "▁Guinea": 2841, "▁created": 2842, "查明": 2843, "▁detailed": 2844, "海洋": 2845, "▁successful": 2846, "紧急": 2847, "▁room": 2848, "▁short": 2849, "省": 2850, "▁leadership": 2851, "▁approaches": 2852, "▁exploitation": 2853, "如此": 2854, "▁along": 2855, "光": 2856, "主": 2857, "The": 2858, "人道主义": 2859, "核准": 2860, "还有": 2861, "▁challenge": 2862, "▁capacities": 2863, "▁鉴于": 2864, "及时": 2865, "和第": 2866, "▁maintain": 2867, "▁instrument": 2868, "额": 2869, "▁covered": 2870, "▁IV": 2871, "▁30.": 2872, "侵犯": 2873, "9.": 2874, "▁Inter": 2875, "5.": 2876, "▁sufficient": 2877, "宣传": 2878, "那么": 2879, "线": 2880, "▁没有": 2881, "研讨会": 2882, "▁subregional": 2883, "俄罗斯联邦": 2884, "维护": 2885, "▁注意到": 2886, "▁stop": 2887, "SR": 2888, "▁Re": 2889, "第二": 2890, "▁goal": 2891, "每个": 2892, "爱": 2893, "▁Note": 2894, "图": 2895, "分配": 2896, "▁civilians": 2897, "的项目": 2898, "▁trust": 2899, "过去": 2900, "学习": 2901, "▁educational": 2902, "起来": 2903, "市": 2904, "雷": 2905, "这样做": 2906, "▁side": 2907, "▁event": 2908, "▁表": 2909, "▁presence": 2910, "▁temporary": 2911, "停止": 2912, "孩子": 2913, ":(": 2914, "▁welcome": 2915, "▁sanctions": 2916, "每": 2917, "▁supply": 2918, "▁woman": 2919, "▁cover": 2920, "网": 2921, "美": 2922, "▁remained": 2923, "本组织": 2924, "广泛": 2925, "U": 2926, "不仅": 2927, "▁advice": 2928, "贫穷": 2929, "▁Legal": 2930, "▁consequences": 2931, "▁Then": 2932, "ul": 2933, "▁disaster": 2934, "▁discussed": 2935, "▁expenditure": 2936, "死亡": 2937, "▁Brazil": 2938, "她们": 2939, "通常": 2940, "站": 2941, "联合国宪章": 2942, "建立一个": 2943, "核武器": 2944, "哈": 2945, "▁safe": 2946, "8.": 2947, "▁Chief": 2948, "ir": 2949, "▁external": 2950, "▁Australia": 2951, "特别是在": 2952, "澳大利亚": 2953, "▁female": 2954, "▁guy": 2955, ".9": 2956, "双方": 2957, "1990": 2958, "▁三": 2959, "▁ethnic": 2960, "▁如": 2961, "▁task": 2962, "路": 2963, "巴西": 2964, "讲习班": 2965, "你們": 2966, "欧洲联盟": 2967, "and": 2968, "必要的": 2969, "▁项目": 2970, "▁Although": 2971, "找": 2972, "指导": 2973, "顾问": 2974, "生效": 2975, "▁Community": 2976, "管": 2977, "▁Those": 2978, "▁resulting": 2979, "▁suggested": 2980, "▁urban": 2981, "商业": 2982, "不要": 2983, "▁Item": 2984, "变化": 2985, "至少": 2986, "看到": 2987, "▁Operations": 2988, "▁recovery": 2989, "▁counter": 2990, "著": 2991, "至关重要": 2992, "▁31.": 2993, "▁read": 2994, "适用于": 2995, "▁single": 2996, "▁mandates": 2997, "治疗": 2998, "财务": 2999, "▁observations": 3000, "群体": 3001, "▁demand": 3002, "▁monitor": 3003, "▁clearly": 3004, "ri": 3005, "1995": 3006, "不应": 3007, "▁although": 3008, "国际组织": 3009, "苏丹": 3010, "姆": 3011, "研究所": 3012, "六": 3013, "▁everything": 3014, "通过了": 3015, "外国": 3016, "现象": 3017, "▁Did": 3018, "门": 3019, "近": 3020, "愿意": 3021, "▁会议": 3022, "и": 3023, "▁Pakistan": 3024, "▁reason": 3025, "▁Sierra": 3026, "▁welcomes": 3027, "▁recently": 3028, "男女": 3029, "44": 3030, "主管": 3031, "收集": 3032, "度": 3033, "巴基斯坦": 3034, "▁1996": 3035, "▁32.": 3036, "7.": 3037, "▁involving": 3038, "▁lives": 3039, "▁Here": 3040, "采取措施": 3041, "新闻": 3042, "数量": 3043, "▁scientific": 3044, "▁audit": 3045, "面临": 3046, "过程": 3047, "以后": 3048, "▁criteria": 3049, "不足": 3050, "▁Federal": 3051, "普": 3052, "▁killed": 3053, "▁culture": 3054, "获取": 3055, "清单": 3056, "▁designed": 3057, "之外": 3058, "▁duty": 3059, "▁60": 3060, "▁mother": 3061, "交易": 3062, "关键": 3063, "過": 3064, "罪": 3065, "的事": 3066, "▁timely": 3067, "▁traditional": 3068, "权力": 3069, "▁donors": 3070, "▁v": 3071, "制": 3072, "▁statistics": 3073, "▁mentioned": 3074, "▁solution": 3075, "传播": 3076, "▁relationship": 3077, "▁focused": 3078, "的儿童": 3079, "▁entry": 3080, "am": 3081, "▁source": 3082, "审判": 3083, "▁average": 3084, "夫": 3085, "领导": 3086, "▁и": 3087, "▁transparency": 3088, "土著人民": 3089, "▁Somalia": 3090, "有可能": 3091, "拒绝": 3092, "100": 3093, "▁Leone": 3094, "教": 3095, "依照": 3096, "债务": 3097, "地点": 3098, "领导人": 3099, "私营部门": 3100, "大量": 3101, "▁33.": 3102, "▁Labour": 3103, "三个": 3104, "▁longer": 3105, "▁Moreover": 3106, "▁visit": 3107, "火": 3108, "▁sir": 3109, "▁UNFPA": 3110, "▁sex": 3111, "United": 3112, "听": 3113, "▁这个": 3114, "▁languages": 3115, "儿童基金会": 3116, "▁guys": 3117, "▁Police": 3118, "42": 3119, "真": 3120, "利益": 3121, "理解": 3122, "▁El": 3123, "▁Weapons": 3124, "▁network": 3125, "开发署": 3126, "的原则": 3127, "信托基金": 3128, "▁father": 3129, "▁aim": 3130, "▁phase": 3131, "▁stressed": 3132, "呀": 3133, "▁studies": 3134, "▁lot": 3135, "阿拉伯": 3136, "▁broad": 3137, "工": 3138, "▁Kuwait": 3139, "▁independence": 3140, "▁wrong": 3141, "▁Further": 3142, "器": 3143, "▁units": 3144, "关切": 3145, "▁Rules": 3146, "▁stage": 3147, "▁Association": 3148, "邀请": 3149, "▁目前": 3150, "▁construction": 3151, "仅": 3152, "本身": 3153, "▁billion": 3154, "并将": 3155, "钱": 3156, "专业": 3157, "▁wanted": 3158, "民族": 3159, "级": 3160, "▁Financial": 3161, "接触": 3162, "▁Members": 3163, "损害": 3164, "纽约": 3165, "计算": 3166, "规定的": 3167, "专题": 3168, "▁34.": 3169, "未能": 3170, "我们的": 3171, "降低": 3172, "▁turn": 3173, "建设": 3174, "勒": 3175, "公开": 3176, "▁我知道": 3177, "▁urgent": 3178, "库": 3179, "贫困": 3180, "放": 3181, "的执行情况": 3182, "▁border": 3183, "居民": 3184, "▁Palestine": 3185, "学生": 3186, "▁conclusion": 3187, "以上": 3188, "▁movement": 3189, "▁formal": 3190, "并不": 3191, "ic": 3192, "▁deployment": 3193, "土耳其": 3194, "小组委员会": 3195, "▁mass": 3196, "职位": 3197, "您": 3198, "▁快": 3199, "▁host": 3200, "▁involvement": 3201, "•": 3202, "▁Authority": 3203, "答复": 3204, "动": 3205, "▁approval": 3206, "▁cross": 3207, "▁enhancing": 3208, "▁success": 3209, "▁UNIDO": 3210, "十年": 3211, "69": 3212, "军": 3213, "十分": 3214, "▁Space": 3215, "的各项": 3216, "▁Strategy": 3217, "▁重申": 3218, "▁这种": 3219, "原": 3220, "▁intended": 3221, "查": 3222, "▁tools": 3223, "▁honour": 3224, "▁conclusions": 3225, "▁multi": 3226, "▁alternative": 3227, "更多的": 3228, "罪行": 3229, "须": 3230, "▁summary": 3231, "▁reflect": 3232, "上的": 3233, "▁takes": 3234, "il": 3235, "类": 3236, "武装冲突": 3237, "的承诺": 3238, "▁reach": 3239, "室": 3240, "或其他": 3241, "▁appeal": 3242, "▁freedoms": 3243, "吉": 3244, "▁35.": 3245, "▁occupation": 3246, "似乎": 3247, "签署": 3248, "co": 3249, "意大利": 3250, "开发计划署": 3251, "尤其": 3252, "女孩": 3253, "▁ask": 3254, "拿": 3255, "提供的": 3256, "▁personal": 3257, "什麼": 3258, "科威特": 3259, "▁2009,": 3260, "▁Chair": 3261, "▁欢迎": 3262, "is": 3263, "转": 3264, "W": 3265, "电子": 3266, "障碍": 3267, "點": 3268, "▁electronic": 3269, "课程": 3270, "4.": 3271, "▁Technical": 3272, "▁encourages": 3273, "比较": 3274, "语": 3275, "▁doesn": 3276, "▁commercial": 3277, "值": 3278, "科特迪瓦": 3279, "▁Third": 3280, "埃及": 3281, "▁growing": 3282, "理由": 3283, "▁assessments": 3284, "▁prepare": 3285, "商定": 3286, "▁English": 3287, "▁improvement": 3288, "估计": 3289, "▁stay": 3290, "起诉": 3291, "指南": 3292, "酷刑": 3293, "▁racial": 3294, "▁occupied": 3295, "▁trial": 3296, "-2": 3297, "问": 3298, "高级": 3299, "定": 3300, "▁export": 3301, "▁ago": 3302, "▁System": 3303, "▁closely": 3304, "▁known": 3305, "▁Peacekeeping": 3306, "塞": 3307, "能力建设": 3308, "▁Assistance": 3309, "▁After": 3310, "举办": 3311, "▁mine": 3312, "未来": 3313, "自愿": 3314, "重点": 3315, "奥": 3316, "▁absence": 3317, "打算": 3318, "▁conventions": 3319, "▁elected": 3320, "的各种": 3321, "场": 3322, "▁late": 3323, "有人": 3324, "宪章": 3325, "對": 3326, "人权委员会": 3327, "▁alone": 3328, "西班牙": 3329, "cH": 3330, "▁happened": 3331, "造成的": 3332, "令": 3333, "▁attacks": 3334, "职业": 3335, "▁秘书长": 3336, "供应": 3337, "▁77": 3338, "▁一个": 3339, "交": 3340, "将其": 3341, "▁big": 3342, "个国家": 3343, "基础": 3344, "▁combating": 3345, "▁expertise": 3346, "相互": 3347, "磋商": 3348, "▁Islands": 3349, "43": 3350, "▁beginning": 3351, "境内": 3352, "▁Officer": 3353, "▁makes": 3354, "▁launched": 3355, "▁minimum": 3356, "▁国际": 3357, "▁fine": 3358, "2015": 3359, "▁useful": 3360, "weapon": 3361, "▁fucking": 3362, "▁NGOs": 3363, "▁36.": 3364, "▁concrete": 3365, "将继续": 3366, "▁Policy": 3367, "大约": 3368, "▁skills": 3369, "▁对于": 3370, "75": 3371, "▁operating": 3372, "明": 3373, "▁US": 3374, "third": 3375, "@": 3376, "需": 3377, "第一次": 3378, "维": 3379, "41": 3380, "▁我的": 3381, "▁al": 3382, "酌情": 3383, "优先": 3384, "相信": 3385, "▁went": 3386, "▁cooperate": 3387, "▁Cultural": 3388, "干事": 3389, "▁cause": 3390, "体": 3391, "甚至": 3392, "拘留": 3393, "▁fair": 3394, "▁Fifth": 3395, "fn": 3396, "▁payment": 3397, "提及": 3398, "▁lower": 3399, "可能会": 3400, "语言": 3401, "▁Financing": 3402, "▁respond": 3403, "▁car": 3404, "▁almost": 3405, "▁actively": 3406, "带来": 3407, "▁agricultural": 3408, "作了": 3409, "主题": 3410, "▁negative": 3411, "▁ready": 3412, "ô": 3413, "▁Bureau": 3414, "▁recruitment": 3415, "令人": 3416, "这样的": 3417, "的方法": 3418, "▁Turkey": 3419, "▁workshops": 3420, "日期": 3421, "精神": 3422, "成立": 3423, "所需的": 3424, "▁son": 3425, "▁University": 3426, "▁idea": 3427, "▁possibility": 3428, "林": 3429, "来源": 3430, "体系": 3431, "边界": 3432, "▁嗯": 3433, "▁W": 3434, "▁Gender": 3435, "训练": 3436, "攻击": 3437, "▁Experts": 3438, "▁enhanced": 3439, "人口基金": 3440, "争取": 3441, "组成": 3442, "▁U": 3443, "▁37.": 3444, "公平": 3445, "65": 3446, "▁democratic": 3447, "金融": 3448, "▁lost": 3449, "遭到": 3450, "▁refugee": 3451, "有些": 3452, "▁是啊": 3453, "▁undertake": 3454, "▁Framework": 3455, "案文": 3456, "提案": 3457, "气": 3458, "▁dead": 3459, "财政": 3460, "部长": 3461, "▁bad": 3462, "▁sound": 3463, "▁island": 3464, "▁contact": 3465, "▁companies": 3466, "▁definition": 3467, "日内瓦": 3468, "将于": 3469, "▁professional": 3470, "代": 3471, "▁而": 3472, "▁avoid": 3473, "修正": 3474, "在这里": 3475, "▁target": 3476, "▁migration": 3477, "▁run": 3478, "这一点": 3479, "▁North": 3480, "▁internationally": 3481, "▁measure": 3482, "全部": 3483, "–": 3484, "介绍了": 3485, "▁hard": 3486, "特定": 3487, "▁looking": 3488, "▁本": 3489, "的地方": 3490, "ch": 3491, "▁confidence": 3492, "最高": 3493, "很多": 3494, "▁caused": 3495, "以期": 3496, "▁Letter": 3497, "▁compared": 3498, "▁不要": 3499, "▁Indonesia": 3500, "ur": 3501, "▁dealing": 3502, "观察员": 3503, "▁forest": 3504, "▁committee": 3505, "▁efficient": 3506, "分别": 3507, "▁Our": 3508, "▁ability": 3509, "ment": 3510, "▁i": 3511, "工人": 3512, "荷兰": 3513, "行动纲领": 3514, "▁urges": 3515, "病": 3516, "型": 3517, "fs": 3518, "▁3,": 3519, "啦": 3520, "的义务": 3521, "▁relief": 3522, "▁origin": 3523, "▁documentation": 3524, "▁markets": 3525, "应在": 3526, "▁作为": 3527, "▁true": 3528, "▁Because": 3529, "▁38.": 3530, "常": 3531, "收": 3532, "全球化": 3533, "▁immediate": 3534, "的一些": 3535, "工作方案": 3536, "的基础上": 3537, "ealand": 3538, "▁其他": 3539, "▁road": 3540, "载于": 3541, "一致": 3542, "▁Ad": 3543, "身份": 3544, "▁leading": 3545, "非洲联盟": 3546, ".1)": 3547, "▁difficulties": 3548, "▁followed": 3549, "▁coordinated": 3550, "过渡": 3551, "往往": 3552, "队": 3553, "平民": 3554, "▁sea": 3555, "▁planned": 3556, "进": 3557, "▁week": 3558, "▁35": 3559, "▁Territories": 3560, "▁Training": 3561, "原子能机构": 3562, "la": 3563, "医疗": 3564, "▁extended": 3565, "适应": 3566, "年以来": 3567, "▁Ambassador": 3568, "意": 3569, "来文": 3570, "疾病": 3571, "指定": 3572, "便": 3573, "▁kill": 3574, "花": 3575, "挪威": 3576, "享受": 3577, "那个": 3578, "▁Asian": 3579, "▁advance": 3580, "▁rehabilitation": 3581, "大使": 3582, "▁workshop": 3583, "机关": 3584, "▁Egypt": 3585, "给我": 3586, "▁Liberia": 3587, "▁Rwanda": 3588, "发挥": 3589, "数额": 3590, "生物": 3591, "▁Netherlands": 3592, "▁prison": 3593, "以及在": 3594, "货物": 3595, "的支持": 3596, "▁Timor": 3597, "刚果民主共和国": 3598, "▁defined": 3599, "▁membership": 3600, "▁finance": 3601, "▁participated": 3602, "resolution": 3603, "印度尼西亚": 3604, "▁model": 3605, "处于": 3606, "首脑会议": 3607, "▁offences": 3608, "▁damage": 3609, "▁parents": 3610, "▁39": 3611, "▁generally": 3612, "▁shared": 3613, "▁39.": 3614, "_": 3615, "▁不是": 3616, "▁described": 3617, "创造": 3618, "父母": 3619, "▁concept": 3620, "▁strengthened": 3621, "玩": 3622, "的会议": 3623, "▁despite": 3624, "▁recognition": 3625, "劳动": 3626, "ization": 3627, "半": 3628, "接": 3629, "-1": 3630, "▁Western": 3631, "瑞士": 3632, "ion": 3633, "▁design": 3634, "▁1999,": 3635, "▁Italy": 3636, "性质": 3637, "诸如": 3638, "数据库": 3639, "▁然后": 3640, "▁senior": 3641, "#": 3642, "em": 3643, "z": 3644, "▁Decides": 3645, "1994": 3646, "▁好的": 3647, "竞争": 3648, "曼": 3649, "▁inclusion": 3650, "▁Vice": 3651, "经验": 3652, "提交的": 3653, "proliferation": 3654, "的重要": 3655, "▁0": 3656, "随后": 3657, "▁trying": 3658, "▁urged": 3659, "▁工作组": 3660, "传统": 3661, "电": 3662, "▁40.": 3663, "58": 3664, "▁net": 3665, "▁saw": 3666, "▁谢谢": 3667, "▁donor": 3668, "▁accounts": 3669, "制裁": 3670, "▁emphasized": 3671, "▁而且": 3672, "▁options": 3673, "▁causes": 3674, "美利坚合众国": 3675, "干": 3676, "▁component": 3677, "▁Spain": 3678, "体制": 3679, "单": 3680, "依据": 3681, "57": 3682, "▁From": 3683, "▁students": 3684, "▁determine": 3685, "▁reviewed": 3686, "合": 3687, "▁500": 3688, "步骤": 3689, "▁declaration": 3690, "▁engaged": 3691, "瑞典": 3692, "li": 3693, "▁risks": 3694, "▁punishment": 3695, "洛": 3696, "ra": 3697, "名单": 3698, "定义": 3699, "▁collection": 3700, "▁owing": 3701, "▁安全理事会": 3702, "▁Research": 3703, "的一项": 3704, "海地": 3705, "▁constitute": 3706, "▁你是": 3707, "▁express": 3708, "▁Internet": 3709, "现有的": 3710, "利比里亚": 3711, "东帝汶": 3712, "▁200": 3713, "▁Cyprus": 3714, "山": 3715, "▁Technology": 3716, "▁cash": 3717, "▁seven": 3718, "起草": 3719, "▁forced": 3720, "哥伦比亚": 3721, "及其他": 3722, "的妇女": 3723, "写": 3724, "▁outcomes": 3725, "专家组": 3726, "》、《": 3727, "▁written": 3728, "▁reduced": 3729, "工发组织": 3730, "土著": 3731, "▁shit": 3732, "平衡": 3733, "▁1994": 3734, "▁aircraft": 3735, "掉": 3736, "ng": 3737, "概念": 3738, "▁41.": 3739, "▁fourth": 3740, "切实": 3741, "的时间": 3742, "▁crucial": 3743, "拟定": 3744, "▁targets": 3745, "▁types": 3746, "▁Switzerland": 3747, "▁Norway": 3748, "捐款": 3749, "▁grounds": 3750, "感到": 3751, "民间社会": 3752, "▁perspective": 3753, "▁另外": 3754, "▁threats": 3755, "▁territories": 3756, "▁32": 3757, "▁corruption": 3758, "蒂": 3759, "▁Chamber": 3760, "召开": 3761, "▁imposed": 3762, "取": 3763, "资助": 3764, "▁reducing": 3765, "▁还有": 3766, "启动": 3767, "▁applications": 3768, "▁assess": 3769, "▁45": 3770, "▁industry": 3771, "国际合作": 3772, "▁democracy": 3773, "日益": 3774, "理": 3775, "我国": 3776, "▁Introduction": 3777, "▁function": 3778, "▁election": 3779, "▁medium": 3780, "▁else": 3781, "▁placed": 3782, "送": 3783, "讲": 3784, "▁Bosnia": 3785, "卢旺达": 3786, "&": 3787, "▁likely": 3788, "64": 3789, "南非": 3790, "▁offer": 3791, "件": 3792, "返回": 3793, "▁talking": 3794, "one": 3795, "结论": 3796, "▁Northern": 3797, "▁representation": 3798, "科索沃": 3799, "UN": 3800, "塞拉利昂": 3801, "2014": 3802, "▁site": 3803, "▁actually": 3804, "▁estimates": 3805, "续": 3806, "▁subsequent": 3807, "设计": 3808, "不同的": 3809, "反映": 3810, "索": 3811, "▁remaining": 3812, "为此": 3813, "医生": 3814, "▁participating": 3815, "▁42.": 3816, "除": 3817, "其它": 3818, "同样": 3819, "-5": 3820, "▁Many": 3821, "▁entire": 3822, "连": 3823, "▁solutions": 3824, "▁gave": 3825, "▁namely": 3826, "布隆迪": 3827, "▁Hello": 3828, "▁37": 3829, "预计": 3830, "出席": 3831, "▁shown": 3832, "空": 3833, "▁headquarters": 3834, "和发展": 3835, "谁": 3836, "奇": 3837, "种族歧视": 3838, "▁determined": 3839, "认识": 3840, "敦促": 3841, "▁inform": 3842, "▁他們": 3843, "▁eliminate": 3844, "阿根廷": 3845, "56": 3846, "列": 3847, "▁ratification": 3848, "国籍": 3849, "▁33": 3850, "▁Staff": 3851, "▁specifically": 3852, "私人": 3853, "趋势": 3854, "安保": 3855, "▁Darfur": 3856, "52": 3857, "通过的": 3858, "53": 3859, "特殊": 3860, "▁oil": 3861, "▁2014": 3862, "的执行": 3863, "▁Take": 3864, "活动的": 3865, "所作的": 3866, "▁highest": 3867, "指控": 3868, "流": 3869, "▁raise": 3870, "▁registration": 3871, "second": 3872, "报": 3873, "刑法": 3874, "▁—": 3875, "▁Chairperson": 3876, "▁complex": 3877, "业": 3878, "优先事项": 3879, "开放": 3880, "领域的": 3881, "增加了": 3882, "外部": 3883, "▁collective": 3884, "▁43.": 3885, "诺": 3886, "真主": 3887, "肯定": 3888, "▁wide": 3889, "▁represented": 3890, "59": 3891, "工作队": 3892, "▁month": 3893, "▁religion": 3894, "South": 3895, "art": 3896, "▁resulted": 3897, "▁wait": 3898, "98": 3899, "▁though": 3900, "▁try": 3901, "战": 3902, "爾": 3903, "▁paras": 3904, "▁emerging": 3905, "第一": 3906, "▁discuss": 3907, "之中": 3908, "的国际": 3909, "让我": 3910, "▁separate": 3911, "首先": 3912, "▁我会": 3913, "制止": 3914, "▁36": 3915, "▁Two": 3916, "▁34": 3917, "▁holding": 3918, "▁scale": 3919, "67": 3920, "倒": 3921, "▁company": 3922, "▁f": 3923, "▁Ministers": 3924, "供资": 3925, "▁actual": 3926, "刚果": 3927, "▁Be": 3928, "▁series": 3929, "的具体": 3930, "▁hell": 3931, "▁ad": 3932, "of": 3933, "▁Herzegovina": 3934, "事实": 3935, "协作": 3936, "▁morning": 3937, "▁competition": 3938, "▁integrity": 3939, "下降": 3940, "▁accepted": 3941, "▁把": 3942, "▁type": 3943, "00": 3944, "▁forty": 3945, "▁Argentina": 3946, "驻": 3947, "分享": 3948, "更新": 3949, "▁44.": 3950, "所有国家": 3951, "▁当然": 3952, "fourth": 3953, "贡献": 3954, "几": 3955, "在一起": 3956, "▁2010,": 3957, "▁getting": 3958, "这么": 3959, "87": 3960, "▁mutual": 3961, "seventh": 3962, "▁nor": 3963, "言": 3964, "▁someone": 3965, "朋友": 3966, "de": 3967, "式": 3968, "▁organizational": 3969, "▁Internal": 3970, "▁highlighted": 3971, "▁friend": 3972, "这些国家": 3973, "▁immediately": 3974, "真的": 3975, "88": 3976, "任": 3977, "▁marriage": 3978, "78": 3979, "▁wife": 3980, "八": 3981, "▁organs": 3982, "▁centre": 3983, "▁norms": 3984, "▁insurance": 3985, "公众": 3986, "▁floor": 3987, "▁whom": 3988, "情": 3989, "▁Humanitarian": 3990, "有利于": 3991, "▁你知道": 3992, "人的": 3993, "离": 3994, "68": 3995, "球": 3996, "▁authorized": 3997, "的决议草案": 3998, "iv": 3999, "英": 4000, "▁enjoyment": 4001, "www": 4002, "99": 4003, "▁contracts": 4004, "▁Status": 4005, ".”": 4006, "▁Burundi": 4007, "展开": 4008, "▁Indigenous": 4009, "▁rest": 4010, "多边": 4011, "成本": 4012, "咨询委员会": 4013, "▁category": 4014, "▁Adoption": 4015, "运作": 4016, "发生的": 4017, "飞机": 4018, "咨询": 4019, "▁我不知道": 4020, "的费用": 4021, "▁favour": 4022, "可持续": 4023, "▁consent": 4024, "▁advisory": 4025, "▁affairs": 4026, "▁按照": 4027, "后果": 4028, "66": 4029, "沒": 4030, "▁appointed": 4031, "国民": 4032, "ie": 4033, "▁OHCHR": 4034, "▁contributed": 4035, "莱": 4036, "▁Gaza": 4037, "▁45.": 4038, "▁migrants": 4039, "▁emphasis": 4040, "▁draw": 4041, "▁当": 4042, "的方案": 4043, "通报": 4044, "一個": 4045, "预期": 4046, "ah": 4047, "79": 4048, "▁政府": 4049, "▁reintegration": 4050, "▁increasingly": 4051, "参加了": 4052, "班": 4053, "商": 4054, "我要": 4055, "▁allowed": 4056, "的办法": 4057, "的经济": 4058, "ce": 4059, "规范": 4060, "▁responses": 4061, "一级": 4062, "平": 4063, "sixth": 4064, "难民署": 4065, "▁48": 4066, "士": 4067, "v": 4068, "fifth": 4069, "号文件": 4070, ".1,": 4071, "生命": 4072, "▁但我": 4073, "将会": 4074, "新西兰": 4075, "赞同": 4076, "▁started": 4077, "核查": 4078, "捐助者": 4079, "比例": 4080, "▁Colombia": 4081, "▁recognize": 4082, "▁mainly": 4083, "团": 4084, "那样": 4085, "▁findings": 4086, "▁approximately": 4087, "明显": 4088, "▁extend": 4089, "▁46.": 4090, "就会": 4091, "▁guarantee": 4092, "▁Trust": 4093, "▁engage": 4094, "▁Sub": 4095, "▁word": 4096, "▁chapter": 4097, "增进": 4098, "▁除了": 4099, "贷款": 4100, "▁records": 4101, "▁science": 4102, "发表": 4103, "▁Rule": 4104, "应用": 4105, "▁fulfil": 4106, "伤害": 4107, "eighth": 4108, "载有": 4109, "▁1993": 4110, "▁secure": 4111, "年龄": 4112, "一年": 4113, "票": 4114, "辩论": 4115, "实质性": 4116, "赞扬": 4117, "发达国家": 4118, "62": 4119, "▁remember": 4120, "袭击": 4121, "种族": 4122, "▁Sea": 4123, "▁Food": 4124, "筹资": 4125, "诉": 4126, "▁candidates": 4127, "▁大": 4128, "▁everyone": 4129, "章": 4130, "包": 4131, "ninth": 4132, "54": 4133, "调": 4134, "治理": 4135, "所述": 4136, "延长": 4137, "▁convention": 4138, "便利": 4139, "人权理事会": 4140, "im": 4141, "人力资源": 4142, "▁base": 4143, "76": 4144, "经过": 4145, "沒有": 4146, "▁networks": 4147, "▁Maybe": 4148, "▁contains": 4149, "▁Governing": 4150, "了吗": 4151, "男子": 4152, "▁respectively": 4153, "▁observers": 4154, "的数据": 4155, "出去": 4156, "得到了": 4157, "的认识": 4158, "▁victim": 4159, "储存": 4160, "for": 4161, "对此": 4162, "难": 4163, "▁Ukraine": 4164, "的工作人员": 4165, "尼日利亚": 4166, "▁elimination": 4167, "风": 4168, "▁Deputy": 4169, "▁47.": 4170, "▁unless": 4171, "的安全": 4172, "▁alleged": 4173, "▁为此": 4174, "贝": 4175, "物质": 4176, "岛": 4177, "拟议": 4178, "▁Sweden": 4179, "▁learned": 4180, "条规定": 4181, "联合王国": 4182, "▁Have": 4183, "波": 4184, "举行了": 4185, "想要": 4186, "▁gross": 4187, "▁四": 4188, "毒品": 4189, "▁published": 4190, "价格": 4191, "▁Any": 4192, "较": 4193, "▁fields": 4194, "á": 4195, "▁yourself": 4196, "非洲国家": 4197, "白": 4198, "进口": 4199, "包括在": 4200, "更为": 4201, "琌": 4202, "分类": 4203, "▁4,": 4204, "副": 4205, "希": 4206, "▁interested": 4207, "▁drugs": 4208, "古": 4209, "当前": 4210, "▁Control": 4211, "▁2005.": 4212, "段中": 4213, "和平与安全": 4214, "▁investigations": 4215, "▁sharing": 4216, "卫星": 4217, "▁Prosecutor": 4218, "▁Noting": 4219, "▁statistical": 4220, "残疾": 4221, "▁Parliament": 4222, "/2": 4223, "▁Haiti": 4224, "▁endorsed": 4225, "▁preventing": 4226, "一位": 4227, "大多数": 4228, "▁Wait": 4229, "一系列": 4230, "船": 4231, "受害人": 4232, "执行情况": 4233, "▁forum": 4234, "w": 4235, "": 4236, "ness": 4237, "得以": 4238, "▁又": 4239, "▁Drugs": 4240, "▁territorial": 4241, "欧盟": 4242, "待": 4243, "波斯尼亚和黑塞哥维那": 4244, "基金会": 4245, "保险": 4246, "ma": 4247, "▁Lord": 4248, "▁publication": 4249, "医院": 4250, "": 4251, "▁thematic": 4252, "▁requirement": 4253, "台": 4254, "▁categories": 4255, "▁indicate": 4256, "89": 4257, "▁reconciliation": 4258, "与会者": 4259, "审理": 4260, "▁appointment": 4261, "两性平等": 4262, "▁marine": 4263, "95": 4264, "这里": 4265, "周": 4266, "分发": 4267, "▁minorities": 4268, "為": 4269, "▁press": 4270, "Y": 4271, "▁Population": 4272, "▁round": 4273, "地雷": 4274, "眼": 4275, "▁Ethiopia": 4276, "▁offence": 4277, "▁fuck": 4278, "▁globalization": 4279, "回来": 4280, "▁Nigeria": 4281, "法治": 4282, "因而": 4283, "▁48.": 4284, "II": 4285, "▁waste": 4286, "ive": 4287, "活": 4288, "伦": 4289, "摩洛哥": 4290, "▁Decade": 4291, "▁所有": 4292, "▁completion": 4293, "▁listed": 4294, "▁42": 4295, "▁reforms": 4296, "▁competent": 4297, "▁expenditures": 4298, "▁St": 4299, "农村": 4300, "▁你的": 4301, "▁49.": 4302, "▁realization": 4303, "▁values": 4304, "▁saying": 4305, "▁reservations": 4306, "一定": 4307, "选": 4308, "货币": 4309, "片": 4310, "兰": 4311, "▁defence": 4312, "by": 4313, "▁failure": 4314, "▁unit": 4315, "▁expression": 4316, "自然": 4317, "▁populations": 4318, "不知道": 4319, "达成": 4320, "▁internally": 4321, "森": 4322, "▁functioning": 4323, "多数": 4324, "▁credit": 4325, "投票": 4326, "uestions": 4327, "▁affect": 4328, "政府间": 4329, "est": 4330, "▁eight": 4331, "▁好了": 4332, "▁recorded": 4333, "▁Morocco": 4334, "不可": 4335, "▁(1)": 4336, "▁structures": 4337, "▁trends": 4338, "$": 4339, "解": 4340, "▁]": 4341, "目的是": 4342, "▁creating": 4343, "取消": 4344, "▁isn": 4345, "na": 4346, "是为了": 4347, "x": 4348, "的资源": 4349, "判决": 4350, "沙": 4351, "spoke": 4352, "▁campaign": 4353, "环境署": 4354, "▁considers": 4355, "通信": 4356, "到了": 4357, "▁sovereignty": 4358, "▁subsidiary": 4359, "的内容": 4360, "▁lessons": 4361, "nd": 4362, "促使": 4363, "▁2011,": 4364, "▁AND": 4365, "所需": 4366, "▁places": 4367, "▁earlier": 4368, "▁agree": 4369, "中央": 4370, "▁50.": 4371, "▁city": 4372, "▁1998,": 4373, "▁m": 4374, "埃塞俄比亚": 4375, "神": 4376, "命": 4377, "▁38": 4378, "▁应": 4379, "▁43": 4380, "远": 4381, "命令": 4382, "▁54": 4383, "▁Co": 4384, "并确保": 4385, "▁speak": 4386, "▁granted": 4387, "检察官": 4388, "▁rise": 4389, "▁Chile": 4390, "▁Yugoslavia": 4391, "▁tasks": 4392, "▁今天": 4393, "比利时": 4394, "▁建议": 4395, "决策": 4396, "▁Field": 4397, "▁sense": 4398, "COP": 4399, "叙利亚": 4400, "▁同样": 4401, "世": 4402, "▁industrial": 4403, "▁substantial": 4404, "团结": 4405, "▁Calls": 4406, "假": 4407, "付款": 4408, "▁•": 4409, "▁allegations": 4410, "公正": 4411, "▁formulation": 4412, "▁Fifty": 4413, "▁outstanding": 4414, "HRC": 4415, "72": 4416, "只能": 4417, "▁delay": 4418, "▁sought": 4419, "ol": 4420, "有一个": 4421, "的文件": 4422, "----": 4423, "▁有人": 4424, "CONF": 4425, "▁availability": 4426, "雇员": 4427, "重视": 4428, "变": 4429, "报告中": 4430, "97": 4431, "os": 4432, "▁racism": 4433, "▁Another": 4434, "▁Forms": 4435, "▁dissemination": 4436, "指": 4437, "▁arising": 4438, "特别委员会": 4439, "尽可能": 4440, "▁tool": 4441, "核心": 4442, "ent": 4443, "▁delivered": 4444, "详细": 4445, "▁subprogramme": 4446, "▁Subcommittee": 4447, "发出": 4448, "死了": 4449, "age": 4450, "之下": 4451, "▁因为": 4452, "然后": 4453, "▁eradication": 4454, "ine": 4455, "ho": 4456, "▁Allah": 4457, "WG": 4458, "▁content": 4459, "▁inside": 4460, "福利": 4461, "▁aware": 4462, "1993": 4463, "是什么": 4464, "不再": 4465, "▁executive": 4466, "▁Developing": 4467, "怎么": 4468, "1991": 4469, "家庭暴力": 4470, "河": 4471, "粮食": 4472, "▁Ma": 4473, "wide": 4474, "▁boys": 4475, "▁Add": 4476, "种": 4477, "▁constitutional": 4478, "▁visits": 4479, "▁survey": 4480, "博": 4481, "ting": 4482, "▁l": 4483, "伊朗": 4484, "▁nationality": 4485, "秘书长关于": 4486, "▁speaking": 4487, "▁interpretation": 4488, "▁們": 4489, "▁到": 4490, "▁vital": 4491, "难以": 4492, "▁Following": 4493, "lo": 4494, "的战略": 4495, "少": 4496, "类似": 4497, "合法": 4498, "▁Monitoring": 4499, "▁Refugees": 4500, "▁equitable": 4501, "85": 4502, "网站": 4503, "▁nice": 4504, "▁下午": 4505, "皮": 4506, "情报": 4507, "▁existence": 4508, "▁giving": 4509, "▁amended": 4510, "▁worked": 4511, "手册": 4512, "津贴": 4513, "平均": 4514, "框架内": 4515, "▁mainstreaming": 4516, "▁Their": 4517, "机构间": 4518, "的程序": 4519, "塞浦路斯": 4520, "▁accounting": 4521, "▁51.": 4522, "智利": 4523, "建筑": 4524, "▁amendments": 4525, "和平进程": 4526, "的基本": 4527, "质量": 4528, "必要": 4529, "维持和平行动": 4530, "东": 4531, "经济和社会": 4532, "▁Official": 4533, "上诉": 4534, "▁fire": 4535, "▁considering": 4536, "61": 4537, "赞赏": 4538, "▁concluding": 4539, "除其他外": 4540, "▁weeks": 4541, "有效地": 4542, "▁Summary": 4543, "回顾": 4544, "阻止": 4545, "▁boy": 4546, "▁diplomatic": 4547, "另一": 4548, "▁ratified": 4549, "vi": 4550, "芬兰": 4551, "▁reproductive": 4552, "▁Or": 4553, "▁46": 4554, "东西": 4555, "系": 4556, "▁comply": 4557, "▁produced": 4558, "▁identification": 4559, "正常": 4560, "▁emissions": 4561, "外交": 4562, "▁41": 4563, "continued": 4564, "▁Prime": 4565, "▁agriculture": 4566, "▁deep": 4567, "▁faced": 4568, "会议上": 4569, "▁Me": 4570, "▁supports": 4571, "使其": 4572, "热": 4573, "设立一个": 4574, "▁Scientific": 4575, "的讨论": 4576, "执行局": 4577, "届": 4578, "determination": 4579, "乌干达": 4580, "ad": 4581, "do": 4582, "▁49": 4583, "X": 4584, "▁300": 4585, "▁Session": 4586, "逮捕": 4587, "▁56": 4588, "▁Lebanese": 4589, "▁components": 4590, "▁observed": 4591, "决心": 4592, "的原因": 4593, "尽快": 4594, "▁added": 4595, "安全和": 4596, "▁wanna": 4597, "▁experiences": 4598, "▁courses": 4599, "▁heart": 4600, "工程": 4601, "ary": 4602, "▁otherwise": 4603, "▁Resolution": 4604, "51": 4605, "化学品": 4606, "▁Principles": 4607, "▁thirty": 4608, "▁COP": 4609, "印发": 4610, "▁near": 4611, "喜欢": 4612, "的需求": 4613, "关": 4614, "的成员": 4615, "信息和通信技术": 4616, "▁Open": 4617, "▁attack": 4618, "▁2006.": 4619, "感": 4620, "▁那是": 4621, "▁institution": 4622, "▁presentation": 4623, "在执行": 4624, "▁52.": 4625, "个月": 4626, "照顾": 4627, "历史": 4628, "当时": 4629, "设立了": 4630, "▁entered": 4631, "转移": 4632, "形成": 4633, "以往": 4634, "▁behind": 4635, "救": 4636, "的可能性": 4637, "现": 4638, "计": 4639, "算": 4640, "▁zone": 4641, "力量": 4642, "▁秘书处": 4643, "并为": 4644, "ist": 4645, "申诉": 4646, "▁oversight": 4647, "▁47": 4648, "话": 4649, "▁决议草案": 4650, "▁1991": 4651, "在第": 4652, "黑": 4653, "▁加强": 4654, "▁exist": 4655, "▁IAEA": 4656, "ended": 4657, "数目": 4658, "的请求": 4659, "▁strongly": 4660, "确实": 4661, "▁Promotion": 4662, "七": 4663, "▁hands": 4664, "▁assessed": 4665, "▁significantly": 4666, "弄": 4667, "一点": 4668, "妇女在": 4669, "▁commissions": 4670, "▁minutes": 4671, "▁同时": 4672, "et": 4673, "▁knew": 4674, "男人": 4675, "某一": 4676, "▁selected": 4677, "ate": 4678, "▁Thus": 4679, "在联合国": 4680, "几乎": 4681, "▁targeted": 4682, "▁报告": 4683, "▁为什么": 4684, "证人": 4685, "86": 4686, "终止": 4687, "采取了": 4688, "▁截至": 4689, "▁yeah": 4690, "▁theme": 4691, "跑": 4692, "早": 4693, "担心": 4694, "各个": 4695, "投入": 4696, "0.": 4697, "▁VI": 4698, "▁Kenya": 4699, "出来": 4700, "economic": 4701, "▁Finland": 4702, "▁53.": 4703, "▁如果你": 4704, "技术和": 4705, "▁setting": 4706, "▁Initiative": 4707, "▁sustained": 4708, "真正": 4709, "申诉人": 4710, "公布": 4711, "▁More": 4712, "不受": 4713, "的关系": 4714, "▁history": 4715, "初步": 4716, "污染": 4717, "▁Day": 4718, "▁price": 4719, "▁wishes": 4720, "用途": 4721, "▁direction": 4722, "▁Britain": 4723, "血": 4724, "种族主义": 4725, "▁ex": 4726, "▁Myanmar": 4727, "油": 4728, "鉴于": 4729, "▁2004.": 4730, "既": 4731, "▁inclusive": 4732, "▁engagement": 4733, "▁去": 4734, "制造": 4735, "建立了": 4736, "流动": 4737, "反应": 4738, "。”": 4739, "iii": 4740, "▁asylum": 4741, "极": 4742, "奥地利": 4743, "下午": 4744, "重建": 4745, "子女": 4746, "军队": 4747, "ry": 4748, "菲律宾": 4749, "▁forth": 4750, "用户": 4751, "▁委员会还": 4752, "合并": 4753, "▁socio": 4754, "▁1992": 4755, "▁Most": 4756, "從": 4757, "time": 4758, "小时": 4759, "▁55": 4760, "与其他": 4761, "▁看": 4762, "▁disasters": 4763, "赋予": 4764, "96": 4765, "▁highly": 4766, "母亲": 4767, "▁complainant": 4768, "▁Stop": 4769, "73": 4770, "▁你在": 4771, "▁electoral": 4772, "▁秘书长关于": 4773, "职责": 4774, "74": 4775, "▁failed": 4776, "时期": 4777, "▁enabling": 4778, "解决办法": 4779, "▁frameworks": 4780, "▁2012,": 4781, "▁2008.": 4782, "▁release": 4783, "▁gotta": 4784, "83": 4785, "▁5,": 4786, "商品": 4787, "乌克兰": 4788, "出版物": 4789, "谴责": 4790, "▁consumption": 4791, "信息技术": 4792, "▁enterprises": 4793, "也没有": 4794, "▁Thailand": 4795, "署": 4796, "▁speakers": 4797, "并向": 4798, "▁你們": 4799, "的资金": 4800, "日期间": 4801, "她的": 4802, "候选人": 4803, "▁complaints": 4804, "▁spirit": 4805, "▁secondary": 4806, "▁Her": 4807, "伤": 4808, "個": 4809, "▁Partnership": 4810, "人士": 4811, "▁回顾": 4812, "free": 4813, "提供援助": 4814, "法规": 4815, "▁restrictions": 4816, "▁Austria": 4817, "▁Base": 4818, "喝": 4819, "苏": 4820, "▁强调": 4821, "很好": 4822, "▁played": 4823, "作出了": 4824, "▁troop": 4825, "调动": 4826, "▁die": 4827, "国家的": 4828, "腐败": 4829, "▁Out": 4830, "Secretary": 4831, "▁conformity": 4832, "逐步": 4833, "▁updated": 4834, "▁obtain": 4835, "▁(2)": 4836, "非正式": 4837, "包含": 4838, "类别": 4839, "▁offered": 4840, "做了": 4841, "各级": 4842, "▁Dr": 4843, "▁website": 4844, "探讨": 4845, "审议了": 4846, "▁gone": 4847, "▁wasn": 4848, "▁就是": 4849, "▁2007.": 4850, "问题上": 4851, "澄清": 4852, "的基础": 4853, "▁Its": 4854, "声": 4855, "use": 4856, "▁sentence": 4857, "占领": 4858, "有限": 4859, "▁diversity": 4860, "▁amounts": 4861, "切": 4862, "▁Spanish": 4863, "▁facilitating": 4864, "▁Saudi": 4865, "▁encouraging": 4866, "试图": 4867, "▁reservation": 4868, "▁De": 4869, "并没有": 4870, "▁amendment": 4871, "复杂": 4872, "▁pointed": 4873, "▁tax": 4874, "▁54.": 4875, ".15": 4876, "密切合作": 4877, "▁Several": 4878, "▁coverage": 4879, "▁Supreme": 4880, "▁Georgia": 4881, "▁transit": 4882, "▁decide": 4883, "边": 4884, "▁topic": 4885, "一道": 4886, "照": 4887, "▁阿": 4888, "▁缔约国": 4889, "▁Uganda": 4890, "▁except": 4891, "▁2003.": 4892, "▁44": 4893, "1\\": 4894, "CRP": 4895, "▁considerable": 4896, "莫": 4897, "▁Finally": 4898, "品": 4899, "í": 4900, "枪": 4901, "▁Universal": 4902, "▁payments": 4903, "▁budgetary": 4904, "▁identity": 4905, "几个": 4906, "▁charge": 4907, "相比": 4908, "技术合作": 4909, "不可能": 4910, "制定了": 4911, "的需要": 4912, "▁arrest": 4913, "son": 4914, "▁containing": 4915, "所列": 4916, "广泛的": 4917, "63": 4918, "以外": 4919, "合作伙伴": 4920, "的政治": 4921, "双边": 4922, "▁teams": 4923, "年至": 4924, "的成果": 4925, "目前的": 4926, "色": 4927, "▁Resources": 4928, "▁outer": 4929, "和联合国": 4930, "▁losses": 4931, "▁特别报告员": 4932, "装": 4933, "并对": 4934, "▁previously": 4935, "产": 4936, "▁Azerbaijan": 4937, "▁drafting": 4938, "其他国家": 4939, "▁您": 4940, "还将": 4941, "▁determination": 4942, "▁registered": 4943, "▁55.": 4944, "": 4945, "的理由": 4946, "▁linked": 4947, "▁本报告": 4948, "推进": 4949, "项下": 4950, "保": 4951, "▁Fourth": 4952, "▁governing": 4953, "▁friends": 4954, "男性": 4955, "▁Peru": 4956, "不會": 4957, "的标准": 4958, "泰国": 4959, "ta": 4960, "的经验": 4961, "": 4962, "界": 4963, "▁ownership": 4964, "▁理事会": 4965, "▁可": 4966, "丹麦": 4967, "▁heads": 4968, "这一问题": 4969, "创新": 4970, "全世界": 4971, "给你": 4972, "买": 4973, "▁Project": 4974, "▁Philippines": 4975, "▁g": 4976, "莉": 4977, "车辆": 4978, "▁stand": 4979, "▁expenses": 4980, "▁facing": 4981, "▁satisfaction": 4982, "▁真": 4983, "的利益": 4984, "▁Thanks": 4985, "▁carrying": 4986, "办": 4987, "秘鲁": 4988, "▁Chapter": 4989, "合理": 4990, "波兰": 4991, "是谁": 4992, "数字": 4993, "▁Algeria": 4994, "▁Family": 4995, "伊斯兰": 4996, "▁Assistant": 4997, "▁begin": 4998, "价": 4999, "的关键": 5000, "▁2002.": 5001, "82": 5002, "71": 5003, "建设和平": 5004, "助理": 5005, "▁systematic": 5006, "房": 5007, "征聘": 5008, "书面": 5009, "▁Croatia": 5010, "▁limit": 5011, "▁disability": 5012, "的案件": 5013, "))": 5014, "讨论了": 5015, "▁53": 5016, "id": 5017, "200": 5018, "移徙": 5019, "▁intention": 5020, "儿童权利公约": 5021, "▁Notes": 5022, "马里": 5023, "留": 5024, "来了": 5025, "▁Over": 5026, "气候": 5027, "▁mortality": 5028, "▁transparent": 5029, "▁flows": 5030, "▁fall": 5031, "亚洲": 5032, "这个问题": 5033, "day": 5034, "▁diseases": 5035, "▁Hoc": 5036, "05": 5037, "外地": 5038, "第三": 5039, "▁maintained": 5040, "销售": 5041, "▁Sorry": 5042, "shad": 5043, "▁bank": 5044, "单独": 5045, "▁prices": 5046, "依然": 5047, "▁sites": 5048, "▁fuel": 5049, "▁Statute": 5050, "相同": 5051, "1992": 5052, "地区的": 5053, "危地马拉": 5054, "▁database": 5055, "账户": 5056, "▁seeking": 5057, "out": 5058, "重要的": 5059, "主任": 5060, ".4/": 5061, "象": 5062, "婚姻": 5063, "▁proper": 5064, "▁resolve": 5065, "▁56.": 5066, "▁governments": 5067, "▁Despite": 5068, "四个": 5069, "ton": 5070, "的范围": 5071, "▁Therefore": 5072, "所载": 5073, "▁pursue": 5074, "讨论会": 5075, "深": 5076, "▁preparatory": 5077, "▁鼓励": 5078, "ism": 5079, "伊朗伊斯兰共和国": 5080, "汇编": 5081, "▁Czech": 5082, "▁race": 5083, "▁Regulations": 5084, "▁brother": 5085, "▁ICT": 5086, "▁nations": 5087, "▁你要": 5088, "▁Small": 5089, "首": 5090, "减轻": 5091, "▁regulatory": 5092, "穿": 5093, "▁Jerusalem": 5094, "亿": 5095, "厄立特里亚": 5096, "ia": 5097, "▁says": 5098, "▁original": 5099, "▁Recognizing": 5100, "▁preliminary": 5101, "▁minority": 5102, "▁initiated": 5103, "▁obstacles": 5104, "ian": 5105, "▁57": 5106, "即将": 5107, "▁决定": 5108, "副主席": 5109, "的目的": 5110, "no": 5111, "评论": 5112, "▁baby": 5113, "▁Energy": 5114, "▁Sir": 5115, "▁Network": 5116, "▁introduction": 5117, "▁funded": 5118, "▁maintaining": 5119, "di": 5120, "▁truth": 5121, "释放": 5122, "▁美国": 5123, "DP": 5124, "▁works": 5125, "字": 5126, "▁interim": 5127, "这方面的": 5128, "也不": 5129, "贩运": 5130, "▁prosecution": 5131, "▁reconstruction": 5132, "可在": 5133, "发展中国家的": 5134, "ka": 5135, "药": 5136, "▁commission": 5137, "▁我在": 5138, "ak": 5139, "▁aims": 5140, "▁51": 5141, "ha": 5142, "▁departments": 5143, "▁preparing": 5144, "没有任何": 5145, "哪些": 5146, "大韩民国": 5147, "▁numbers": 5148, "虐待": 5149, "▁expansion": 5150, "与联合国": 5151, "▁thereby": 5152, "犯": 5153, "▁empowerment": 5154, "替代": 5155, "筹备": 5156, "议题": 5157, "事情": 5158, "WP": 5159, "预测": 5160, "并非": 5161, "除非": 5162, "這個": 5163, "伯": 5164, "使得": 5165, "▁anyone": 5166, "▁transactions": 5167, "酒": 5168, "销毁": 5169, "涵盖": 5170, "▁Total": 5171, "▁57.": 5172, "诉讼": 5173, "▁percentage": 5174, "item": 5175, "▁Power": 5176, "为什么": 5177, "刑事": 5178, "izing": 5179, "▁contributing": 5180, "联络": 5181, "▁opening": 5182, "▁Iraqi": 5183, "不扩散条约": 5184, "不到": 5185, "reparatory": 5186, "技能": 5187, "▁AIDS": 5188, "▁entity": 5189, "▁allocation": 5190, "值得": 5191, "大部分": 5192, "青少年": 5193, "▁element": 5194, "▁accused": 5195, "▁Guatemala": 5196, "/56/": 5197, "文本": 5198, "自然资源": 5199, "排": 5200, "▁Bangladesh": 5201, "本报告": 5202, "▁Task": 5203, "觉得": 5204, "▁Movement": 5205, "▁supplies": 5206, "截至": 5207, "▁protected": 5208, "问题特别报告员": 5209, "联合会": 5210, "▁Congress": 5211, "▁latter": 5212, "儿童权利": 5213, "阿尔及利亚": 5214, "党": 5215, "大家": 5216, "技术援助": 5217, "的定义": 5218, "▁chemical": 5219, "核裁军": 5220, "▁它们": 5221, "儿": 5222, "ó": 5223, "para": 5224, "表示关切": 5225, "埃": 5226, "▁sustainability": 5227, "▁primarily": 5228, "▁bit": 5229, "▁Use": 5230, "特别会议": 5231, "▁names": 5232, "所以": 5233, "▁message": 5234, "ling": 5235, "的人员": 5236, "Corr": 5237, "▁grave": 5238, "除了": 5239, "▁可以": 5240, "清楚": 5241, "▁identifying": 5242, "▁enter": 5243, "另外": 5244, "克罗地亚": 5245, "▁Like": 5246, "▁unable": 5247, "se": 5248, "93": 5249, "▁worldwide": 5250, "集体": 5251, "▁Comprehensive": 5252, "▁geographical": 5253, "圣": 5254, "零": 5255, "属": 5256, "城": 5257, "▁你想": 5258, "待遇": 5259, "▁Taking": 5260, "主席团": 5261, "▁recalled": 5262, "▁produce": 5263, "教师": 5264, "」": 5265, "旅行": 5266, "▁attended": 5267, "▁instance": 5268, "引渡": 5269, "▁factor": 5270, "人权问题": 5271, "▁join": 5272, "81": 5273, "是个": 5274, "▁myself": 5275, "一套": 5276, "▁legitimate": 5277, "▁protecting": 5278, "▁remedies": 5279, "▁penalty": 5280, "开展了": 5281, "途径": 5282, "▁cycle": 5283, "terrorism": 5284, "▁impacts": 5285, "的审议": 5286, "而是": 5287, "娜": 5288, "▁2001.": 5289, "▁attend": 5290, "▁": 5291, "▁adaptation": 5292, "开展工作": 5293, "更好地": 5294, "▁UNODC": 5295, "▁这样": 5296, "马来西亚": 5297, "法案": 5298, "视": 5299, "▁wouldn": 5300, "94": 5301, "修正案": 5302, "▁learning": 5303, "专业人员": 5304, "▁58.": 5305, "加快": 5306, "▁La": 5307, "▁Budgetary": 5308, "克服": 5309, "设法": 5310, "▁Poland": 5311, "现行": 5312, "▁Belarus": 5313, "后续行动": 5314, "些": 5315, "ou": 5316, "▁Informal": 5317, "编": 5318, "的贡献": 5319, "的立场": 5320, "高度": 5321, "看看": 5322, "▁duties": 5323, "▁OIOS": 5324, "▁reiterated": 5325, "提出报告": 5326, "裁军谈判会议": 5327, "▁confirmed": 5328, "尽": 5329, "▁liability": 5330, "▁employees": 5331, "▁enjoy": 5332, "▁designated": 5333, "▁perpetrators": 5334, "老年人": 5335, "▁etc": 5336, "▁fifth": 5337, "睡": 5338, "▁allocated": 5339, "▁Red": 5340, "人道主义援助": 5341, "▁regulation": 5342, "rd": 5343, "认可": 5344, "▁acting": 5345, "差": 5346, "提名": 5347, "教育和": 5348, "▁正如": 5349, "的挑战": 5350, "巴勒斯坦人民": 5351, "的一切": 5352, "▁Part": 5353, "九": 5354, "提请": 5355, "么": 5356, "阻碍": 5357, "产出": 5358, "▁你好": 5359, "的发言": 5360, "▁ill": 5361, "总额": 5362, "裁决": 5363, "84": 5364, "往": 5365, "▁2000.": 5366, "all": 5367, "▁productive": 5368, "肯尼亚": 5369, "周期": 5370, "各自": 5371, "▁EU": 5372, ".10": 5373, "conflict": 5374, "▁sign": 5375, "阿塞拜疆": 5376, "维持和平": 5377, "和技术": 5378, "指示": 5379, "主权": 5380, "▁examine": 5381, "▁59.": 5382, "女人": 5383, "▁Nepal": 5384, "资本": 5385, "▁Professional": 5386, "▁accept": 5387, "▁58": 5388, "▁details": 5389, "▁partner": 5390, "询问": 5391, "继续努力": 5392, "ay": 5393, "条草案": 5394, "扎": 5395, "狗": 5396, "格鲁吉亚": 5397, "▁Peoples": 5398, "▁Malaysia": 5399, "柬埔寨": 5400, "十": 5401, "▁noting": 5402, "仍然是": 5403, "职务": 5404, "▁LDCs": 5405, "希腊": 5406, "废物": 5407, "新闻部": 5408, "前往": 5409, "▁Follow": 5410, "▁impunity": 5411, "国际法院": 5412, "资格": 5413, "▁Year": 5414, "▁believes": 5415, "▁safeguards": 5416, "社会发展": 5417, "根据第": 5418, "约旦": 5419, "▁Nairobi": 5420, "▁小": 5421, "▁vehicles": 5422, "▁Paragraph": 5423, "▁shows": 5424, "▁older": 5425, "▁ahead": 5426, "▁Jordan": 5427, "的条件": 5428, "发放": 5429, "ti": 5430, "委员会成员": 5431, "惩罚": 5432, "都有": 5433, "拟": 5434, "发言者": 5435, "▁numerous": 5436, "签名": 5437, "▁Even": 5438, "▁(212)": 5439, "开支": 5440, "超": 5441, "立": 5442, "缅甸": 5443, "agency": 5444, "▁consultative": 5445, "▁必须": 5446, "鲁": 5447, "根": 5448, "工资": 5449, "▁噢": 5450, "巩固": 5451, "▁circulated": 5452, "▁decrease": 5453, "物品": 5454, "▁bringing": 5455, "ne": 5456, "▁chap": 5457, "▁考虑到": 5458, "▁60.": 5459, "▁對": 5460, "坚持": 5461, "声称": 5462, "达尔富尔": 5463, "▁haven": 5464, "语文": 5465, "▁settlements": 5466, "的人权": 5467, "▁verification": 5468, "层面": 5469, "有机会": 5470, "证实": 5471, "绝对": 5472, "▁sanitation": 5473, "政策和": 5474, "▁gas": 5475, "▁400": 5476, "目前正在": 5477, "▁Coordinator": 5478, "该区域": 5479, "出版": 5480, "的答复": 5481, "减": 5482, "改": 5483, "▁Forces": 5484, "▁leaving": 5485, "▁specified": 5486, "坐": 5487, "▁grateful": 5488, "▁Hi": 5489, "▁五": 5490, "相当": 5491, "▁cut": 5492, "现实": 5493, "人权高专办": 5494, "▁binding": 5495, "▁comes": 5496, "雇主": 5497, "▁maximum": 5498, "▁Expert": 5499, "强奸": 5500, "这次": 5501, "塞内加尔": 5502, "被告": 5503, "的社会": 5504, "▁husband": 5505, "ty": 5506, "▁Strategic": 5507, "五个": 5508, "▁birth": 5509, "有所": 5510, "▁guide": 5511, "▁reviews": 5512, "两名": 5513, "▁widely": 5514, "我想": 5515, "▁Welcomes": 5516, "▁principal": 5517, "换": 5518, "次级方案": 5519, "专": 5520, "▁publications": 5521, "与其": 5522, "已經": 5523, "▁coordinate": 5524, "俄": 5525, "的参与": 5526, "▁dignity": 5527, "▁uh": 5528, "武装部队": 5529, "(1)": 5530, "阿拉伯叙利亚共和国": 5531, "求": 5532, "▁daily": 5533, "女童": 5534, "▁thinking": 5535, "灾害": 5536, "da": 5537, "▁一些": 5538, "▁Eritrea": 5539, "这些问题": 5540, "发展和": 5541, "院": 5542, "立场": 5543, "实现千年发展目标": 5544, "▁Ministerial": 5545, "石油": 5546, "▁Uh": 5547, "▁pilot": 5548, "民": 5549, "各会员国": 5550, "▁substances": 5551, "面对": 5552, "▁X": 5553, "若": 5554, "杜": 5555, "▁incidents": 5556, "第二次": 5557, "▁refer": 5558, "▁figure": 5559, "▁affecting": 5560, "应付": 5561, "▁judge": 5562, "▁constructive": 5563, "的决议": 5564, "索赔人": 5565, "▁advocacy": 5566, "的目的是": 5567, "突尼斯": 5568, "师": 5569, "货": 5570, "在国家一级": 5571, "百": 5572, "▁occurred": 5573, "搞": 5574, "赫": 5575, "時": 5576, "融资": 5577, "海关": 5578, "错误": 5579, "▁web": 5580, "号决议中": 5581, "▁Serbia": 5582, "▁hoc": 5583, "晚": 5584, "▁uses": 5585, "▁促进": 5586, "▁dispute": 5587, "教科文组织": 5588, "颁布": 5589, "▁Accordingly": 5590, "▁looks": 5591, "q": 5592, "▁Supplement": 5593, "▁pending": 5594, "▁represent": 5595, "主要是": 5596, "状态": 5597, "运": 5598, "最高法院": 5599, "▁62": 5600, "▁reaffirmed": 5601, "▁我不": 5602, "▁assisting": 5603, "管理和": 5604, "意味着": 5605, "ov": 5606, "▁ILO": 5607, "筹备委员会": 5608, "▁hoped": 5609, "渔业": 5610, "取决于": 5611, "总体": 5612, "获": 5613, "兵": 5614, "干预": 5615, "的全面": 5616, "只要": 5617, "失": 5618, "▁61.": 5619, "差异": 5620, "raising": 5621, "放弃": 5622, "▁examination": 5623, "▁news": 5624, "92": 5625, "提供支助": 5626, "救济": 5627, "▁top": 5628, "道德": 5629, "现金": 5630, "谈": 5631, "学院": 5632, "一直在": 5633, "▁64": 5634, "内的": 5635, "▁reasonable": 5636, "目": 5637, "罗马尼亚": 5638, "经济发展": 5639, "ance": 5640, "知": 5641, "▁judiciary": 5642, "▁investments": 5643, "▁52": 5644, "▁会": 5645, "的说明": 5646, "▁troops": 5647, "衡量": 5648, "补贴": 5649, "购买": 5650, "▁Belgium": 5651, "争端": 5652, "▁nine": 5653, "▁chemicals": 5654, "很大": 5655, "▁focal": 5656, "▁happy": 5657, "▁drawn": 5658, "▁began": 5659, "▁con": 5660, "▁suffering": 5661, "▁innovative": 5662, "自然灾害": 5663, "▁Torture": 5664, "药物": 5665, "▁observer": 5666, "引起": 5667, "▁calling": 5668, "+": 5669, "▁obtained": 5670, "官": 5671, "▁Reaffirming": 5672, "▁stations": 5673, "任何人": 5674, "燃料": 5675, "推广": 5676, "▁choice": 5677, "▁对不起": 5678, "持": 5679, "结": 5680, "共有": 5681, "平台": 5682, "▁committees": 5683, "沙特阿拉伯": 5684, "▁improvements": 5685, "▁indeed": 5686, "美洲": 5687, "▁Ecuador": 5688, "提醒": 5689, "▁Denmark": 5690, "过来": 5691, "上文第": 5692, "养恤金": 5693, "强": 5694, "▁Budget": 5695, "▁controls": 5696, "规定了": 5697, "方向": 5698, "▁prisoners": 5699, "的生活": 5700, "调解": 5701, "開": 5702, "▁vulnerability": 5703, "off": 5704, "实际上": 5705, "▁grant": 5706, "最初": 5707, "依": 5708, "▁2009.": 5709, "▁achievements": 5710, "▁constraints": 5711, "愛": 5712, "杀": 5713, "▁Romania": 5714, "还在": 5715, "积极参与": 5716, "顿": 5717, "▁Tell": 5718, "▁Sri": 5719, "首次": 5720, "▁pretty": 5721, "▁receiving": 5722, "▁Kyoto": 5723, "真正的": 5724, "▁Mrs": 5725, "护理": 5726, "弹药": 5727, "▁maybe": 5728, "帮": 5729, "▁easy": 5730, "mail": 5731, "▁burden": 5732, "▁Costa": 5733, "▁62.": 5734, "元": 5735, "葡萄牙": 5736, "ter": 5737, "▁unilateral": 5738, "▁panel": 5739, "▁moment": 5740, "和执行": 5741, "总理": 5742, "座": 5743, "观点": 5744, "▁wants": 5745, "驱逐": 5746, "越来越": 5747, "瑞": 5748, "并未": 5749, "民众": 5750, "▁tried": 5751, "和建议": 5752, "协调员": 5753, "▁modalities": 5754, "▁agency": 5755, "的核心": 5756, "▁fear": 5757, "族": 5758, "▁UNESCO": 5759, "显然": 5760, "传": 5761, "▁differences": 5762, "▁migrant": 5763, "▁只有": 5764, "▁jointly": 5765, "高级别": 5766, "▁gap": 5767, "▁became": 5768, "作出决定": 5769, "的实际": 5770, "基础上": 5771, "▁link": 5772, "的个人": 5773, "厄瓜多尔": 5774, "设立的": 5775, "▁Model": 5776, "▁proliferation": 5777, "交付": 5778, "最好": 5779, "营养": 5780, "▁Eastern": 5781, "▁Mo": 5782, "走了": 5783, "://": 5784, "效率": 5785, "付": 5786, "是因为": 5787, "▁located": 5788, "视为": 5789, "在那里": 5790, "ant": 5791, "产生的": 5792, "▁proportion": 5793, "▁subsequently": 5794, "实地": 5795, "▁guarantees": 5796, "▁option": 5797, "和加强": 5798, "▁Peacebuilding": 5799, "▁许多": 5800, "地球": 5801, "妨碍": 5802, "先前": 5803, "▁Man": 5804, "rs": 5805, "社": 5806, "食品": 5807, "▁Lanka": 5808, "▁guess": 5809, "▁humanity": 5810, "▁rapid": 5811, "/1": 5812, "▁Beijing": 5813, "▁campaigns": 5814, "▁Venezuela": 5815, "行业": 5816, "下来": 5817, "取得了": 5818, "▁Rica": 5819, "▁Counter": 5820, "▁deliberations": 5821, "北": 5822, "每一": 5823, "▁regularly": 5824, "▁scheduled": 5825, "管辖": 5826, "清": 5827, "失业": 5828, "▁changed": 5829, "族裔": 5830, "▁capabilities": 5831, "▁OK": 5832, "任期": 5833, "低于": 5834, "▁上午": 5835, "▁Excellency": 5836, "并鼓励": 5837, "工会": 5838, "经常预算": 5839, "▁63.": 5840, "▁closed": 5841, "遵循": 5842, "最低": 5843, "▁felt": 5844, "▁degree": 5845, "两年": 5846, "影响到": 5847, "性别平等": 5848, "▁Military": 5849, "▁委员会注意到": 5850, "第五": 5851, "每天": 5852, "主张": 5853, "▁governmental": 5854, "▁prostitution": 5855, "与发展": 5856, "▁send": 5857, "面临的": 5858, "▁seems": 5859, "的状况": 5860, "多少": 5861, "▁Statistics": 5862, "▁incorporated": 5863, "▁Dad": 5864, "兼": 5865, "▁preventive": 5866, "补偿": 5867, "赛": 5868, "ized": 5869, "京都议定书": 5870, "▁mandated": 5871, "INF": 5872, "制作": 5873, "斯洛文尼亚": 5874, "监禁": 5875, "表现": 5876, "▁Having": 5877, "暂停": 5878, "▁radio": 5879, "是由": 5880, "be": 5881, "全体会议": 5882, "發": 5883, "滥用": 5884, "以促进": 5885, "▁quite": 5886, "▁這是": 5887, "▁谁": 5888, "▁Angola": 5889, "▁已": 5890, "▁disputes": 5891, "注重": 5892, "来的": 5893, "▁2013,": 5894, "差距": 5895, "▁test": 5896, "执法": 5897, "▁outlined": 5898, "寻找": 5899, "▁declared": 5900, "▁Change": 5901, "▁users": 5902, "▁导言": 5903, "夫人": 5904, "通讯": 5905, "▁extreme": 5906, "錢": 5907, "UNEP": 5908, "ow": 5909, "▁Activities": 5910, "▁contain": 5911, "了一个": 5912, "取代": 5913, "▁transmitted": 5914, "▁resumed": 5915, "雇用": 5916, "(2)": 5917, "▁letters": 5918, "▁600": 5919, "▁h": 5920, "兹": 5921, "孟加拉国": 5922, "税": 5923, "▁Only": 5924, "▁search": 5925, "劳工": 5926, "▁Paris": 5927, "》;": 5928, "▁Arabia": 5929, "加速": 5930, "▁violated": 5931, "消除贫穷": 5932, "的同时": 5933, "▁Strengthening": 5934, "星": 5935, "表决": 5936, "安全理事会第": 5937, "led": 5938, "错": 5939, "▁recognizes": 5940, "和管理": 5941, "面前": 5942, "被视为": 5943, "CO": 5944, "▁powers": 5945, "▁其中": 5946, "▁extensive": 5947, "▁1997,": 5948, "▁size": 5949, "▁Encourages": 5950, "▁以色列": 5951, "五年": 5952, "曾经": 5953, "英国": 5954, "me": 5955, "尚": 5956, "依赖": 5957, "▁happen": 5958, "放在": 5959, "同一": 5960, "▁probably": 5961, "▁我们认为": 5962, "▁briefing": 5963, "的机构": 5964, "大规模毁灭性武器": 5965, "卷": 5966, "建造": 5967, "▁Oversight": 5968, "▁seminars": 5969, "也有": 5970, "▁arrested": 5971, "▁64.": 5972, "▁确保": 5973, "建": 5974, "▁permit": 5975, "普通": 5976, "千": 5977, "外交部长": 5978, "▁pro": 5979, "▁writing": 5980, "批准了": 5981, "her": 5982, "那里": 5983, "源": 5984, "▁background": 5985, "死刑": 5986, "解除武装": 5987, "亲": 5988, "证": 5989, "许可": 5990, "推": 5991, "维也纳": 5992, "的看法": 5993, "▁Given": 5994, "该委员会": 5995, "▁Urges": 5996, "▁pressure": 5997, "▁Safety": 5998, "▁imprisonment": 5999, "▁assigned": 6000, "的有关": 6001, "小姐": 6002, "的东西": 6003, "▁covering": 6004, "▁door": 6005, "▁staffing": 6006, "危害": 6007, "怎么样": 6008, "▁announced": 6009, "▁Give": 6010, "91": 6011, ".12": 6012, "▁vision": 6013, "▁expanded": 6014, "梅": 6015, "戈": 6016, "回去": 6017, "的世界": 6018, "▁Chinese": 6019, "▁Work": 6020, "务": 6021, "执行主任": 6022, "op": 6023, "汇报": 6024, "东道国": 6025, "our": 6026, "▁break": 6027, "▁Portugal": 6028, "少数民族": 6029, "密切": 6030, "Commission": 6031, "▁65": 6032, "▁unemployment": 6033, "▁Violence": 6034, "▁Le": 6035, "▁century": 6036, "▁Equality": 6037, "▁Independent": 6038, "审计委员会": 6039, "▁joined": 6040, "不平等": 6041, "大不列颠及北爱尔兰联合王国": 6042, "囚犯": 6043, "中东": 6044, "不了": 6045, "▁examined": 6046, "开展的": 6047, "▁convened": 6048, "▁mines": 6049, "▁charges": 6050, "▁technological": 6051, ".11": 6052, "严格": 6053, "尼泊尔": 6054, "▁Records": 6055, "▁ones": 6056, "提交给": 6057, "中有": 6058, "收益": 6059, "▁invitation": 6060, "▁dangerous": 6061, "▁按": 6062, "sh": 6063, "▁65.": 6064, "着手": 6065, "▁solidarity": 6066, "▁Platform": 6067, "▁sale": 6068, "存": 6069, "哥": 6070, "订正": 6071, "彻底": 6072, "的技术": 6073, "养": 6074, "政党": 6075, "▁sometimes": 6076, "当然": 6077, "心理": 6078, "per": 6079, "客户": 6080, "▁coherence": 6081, "▁coordinating": 6082, "atar": 6083, "▁mental": 6084, "▁tomorrow": 6085, "go": 6086, "供应商": 6087, "回家": 6088, "实": 6089, "集中": 6090, "嘛": 6091, "落": 6092, "有点": 6093, "▁再": 6094, "▁80": 6095, "厅": 6096, "直": 6097, "▁product": 6098, "▁rape": 6099, "▁tonight": 6100, "▁clean": 6101, "仲裁": 6102, "是一种": 6103, "ard": 6104, "▁attached": 6105, "提出建议": 6106, "根本": 6107, "▁nationals": 6108, "▁eat": 6109, "怀疑": 6110, "层": 6111, "▁listen": 6112, "担保": 6113, "斯特": 6114, "**": 6115, "▁helping": 6116, "程": 6117, "出生": 6118, "▁咨询委员会": 6119, "上升": 6120, "补编第": 6121, "▁eyes": 6122, "性的": 6123, "▁Additional": 6124, "的全球": 6125, "▁hit": 6126, "▁70": 6127, "的风险": 6128, "um": 6129, "规模": 6130, "/3": 6131, "提交报告": 6132, "▁expand": 6133, "主持": 6134, "▁等等": 6135, "▁foster": 6136, "致": 6137, "估计数": 6138, "飞": 6139, "怪": 6140, "▁Each": 6141, "管理局": 6142, "▁condition": 6143, "▁Climate": 6144, "改为": 6145, "表达": 6146, "▁mobilization": 6147, "當": 6148, "口头": 6149, "的培训": 6150, "爱尔兰": 6151, "所规定的": 6152, "7%": 6153, "▁knows": 6154, "附件一": 6155, "密": 6156, "禁": 6157, "▁extension": 6158, "▁soldiers": 6159, "采取的行动": 6160, "设": 6161, "▁selection": 6162, "以及对": 6163, "该报告": 6164, "▁Cambodia": 6165, "爆炸": 6166, "很难": 6167, "捷克共和国": 6168, "▁61": 6169, "准确": 6170, "▁perform": 6171, "▁intolerance": 6172, "有义务": 6173, "生活在": 6174, "已有": 6175, "▁66.": 6176, "好了": 6177, "负担": 6178, "▁file": 6179, "反恐": 6180, "审查了": 6181, "▁acceptance": 6182, "▁witnesses": 6183, "所有人": 6184, "▁links": 6185, "▁我也": 6186, "▁Foundation": 6187, "▁gaps": 6188, "▁真的": 6189, "▁Corr": 6190, "▁NPT": 6191, "进步": 6192, "▁advantage": 6193, "国际会议": 6194, "▁roles": 6195, "4%": 6196, "▁helped": 6197, "记者": 6198, "的后续行动": 6199, "获悉": 6200, "集": 6201, "透明": 6202, "▁San": 6203, "▁安理会": 6204, "白俄罗斯": 6205, ".9/": 6206, "世贸组织": 6207, "帶": 6208, "▁examples": 6209, "剂": 6210, "▁died": 6211, "▁pension": 6212, "的人数": 6213, "次区域": 6214, "ang": 6215, "▁最近": 6216, "经营": 6217, "汞": 6218, "越": 6219, "严重的": 6220, "生态系统": 6221, "▁relevance": 6222, "的研究": 6223, "▁comment": 6224, "年代": 6225, "▁yes": 6226, "的相关": 6227, "观察": 6228, "old": 6229, "国际贸易": 6230, "加纳": 6231, "捐助": 6232, "▁Sixth": 6233, "在于": 6234, "specific": 6235, "▁broader": 6236, "▁Afghan": 6237, "▁Measures": 6238, "报告说": 6239, "界定": 6240, "▁papers": 6241, "靠": 6242, "▁trend": 6243, "劳工组织": 6244, "▁check": 6245, "豁免": 6246, "反映了": 6247, "・": 6248, "▁location": 6249, "500": 6250, "▁processing": 6251, "▁90": 6252, "不想": 6253, "▁Integrated": 6254, "作出的": 6255, "审评": 6256, "/4": 6257, "▁Planning": 6258, "▁societies": 6259, "▁见": 6260, "性暴力": 6261, "恶化": 6262, "武装": 6263, "喀麦隆": 6264, "▁seminar": 6265, "▁town": 6266, "Habitat": 6267, "▁segment": 6268, "号和第": 6269, "▁fighting": 6270, "▁manage": 6271, "▁Greece": 6272, "▁methodology": 6273, "▁teachers": 6274, "的缔约国": 6275, "▁exports": 6276, "有时": 6277, "萨尔瓦多": 6278, "回到": 6279, "国际人道主义法": 6280, "▁arbitrary": 6281, "掌握": 6282, "新加坡": 6283, "佩": 6284, "▁抱歉": 6285, "▁jobs": 6286, "▁associations": 6287, "斯里兰卡": 6288, "▁officer": 6289, "的区域": 6290, "的进展": 6291, "": 6292, "为基础": 6293, "为期": 6294, "3%": 6295, "▁goes": 6296, "定于": 6297, "▁thanks": 6298, "▁Occupied": 6299, "we": 6300, "耶": 6301, "世界银行": 6302, "社会保障": 6303, "▁喂": 6304, "朝鲜民主主义人民共和国": 6305, "少数群体": 6306, "违反了": 6307, "在此": 6308, "Leste": 6309, "▁update": 6310, "▁subjected": 6311, "认真": 6312, "▁appear": 6313, "▁seriously": 6314, "福": 6315, "最大的": 6316, "▁front": 6317, "跳": 6318, "词": 6319, "▁Palestinians": 6320, "▁据": 6321, "▁Agriculture": 6322, "▁只是": 6323, "升": 6324, "回答": 6325, "免费": 6326, "▁Friday": 6327, "▁TO": 6328, "▁phone": 6329, "履行其": 6330, "尤其是在": 6331, "该组织": 6332, "▁belief": 6333, "的环境": 6334, "消费": 6335, "▁chance": 6336, "邻国": 6337, "大规模": 6338, "▁确认": 6339, "▁competence": 6340, "怎样": 6341, "另一个": 6342, "▁VII": 6343, "我是": 6344, "告": 6345, "听到": 6346, "会计": 6347, "月至": 6348, "匈牙利": 6349, "▁那么": 6350, "▁keeping": 6351, "▁contrary": 6352, "▁deliver": 6353, "取得进展": 6354, "▁dealt": 6355, "警": 6356, "食": 6357, "纪念": 6358, "安哥拉": 6359, "▁Rome": 6360, "性别问题": 6361, "委员": 6362, "▁事实上": 6363, "▁Issues": 6364, "俄罗斯": 6365, "▁enterprise": 6366, "哪": 6367, "▁Y": 6368, "▁opened": 6369, "▁banks": 6370, "▁Racial": 6371, "审": 6372, "▁constitutes": 6373, "▁kept": 6374, "并通过": 6375, "多种": 6376, "▁raising": 6377, "▁instead": 6378, "临时议程": 6379, "双": 6380, "登": 6381, "▁Really": 6382, "始终": 6383, "▁investigate": 6384, "鱼": 6385, "罪犯": 6386, "▁59": 6387, "最大": 6388, "排放": 6389, "步": 6390, "失去": 6391, "▁Number": 6392, "▁Southern": 6393, "ies": 6394, "管辖权": 6395, "一家": 6396, "更好的": 6397, "less": 6398, "▁involve": 6399, "▁67.": 6400, "跟你": 6401, "▁believed": 6402, "▁envisaged": 6403, "提出的建议": 6404, "\\3": 6405, "▁latest": 6406, "▁regards": 6407, "摘要": 6408, "居住": 6409, "▁spread": 6410, "▁la": 6411, "▁Listen": 6412, "生物多样性": 6413, "▁focusing": 6414, "▁Senegal": 6415, "电视": 6416, "这两个": 6417, "已在": 6418, "轮": 6419, "▁Tanzania": 6420, "举办了": 6421, "以及其他": 6422, "▁嗨": 6423, "捐助国": 6424, "▁lines": 6425, "▁Representatives": 6426, "▁除": 6427, "共计": 6428, "暴力行为": 6429, "▁Society": 6430, "哥斯达黎加": 6431, "委员会主席": 6432, "总是": 6433, "▁residence": 6434, "▁embargo": 6435, "▁answer": 6436, "▁harm": 6437, "抗": 6438, "▁War": 6439, "必须在": 6440, "▁demonstrated": 6441, "▁budgets": 6442, "下的": 6443, "设在": 6444, "▁story": 6445, "职": 6446, "缔约国会议": 6447, "食物": 6448, "▁Nothing": 6449, "有关国家": 6450, "mo": 6451, "事先": 6452, "▁couldn": 6453, "处罚": 6454, "发布": 6455, "主义": 6456, "和社会": 6457, "▁blood": 6458, "鬼": 6459, "▁moving": 6460, "亚美尼亚": 6461, "wa": 6462, "列出": 6463, "▁save": 6464, "区域组织": 6465, "▁transferred": 6466, "▁posed": 6467, "▁customs": 6468, "监管": 6469, "和协调": 6470, "捐助方": 6471, "完": 6472, "▁审查": 6473, "恐怖": 6474, "▁married": 6475, "法令": 6476, "温": 6477, "▁combined": 6478, "▁ended": 6479, "▁Takes": 6480, "的管理": 6481, "的提议": 6482, "▁figures": 6483, "▁code": 6484, "态度": 6485, "▁launch": 6486, "▁traffic": 6487, "▁withdrawal": 6488, "帕": 6489, "▁worry": 6490, "▁corporate": 6491, "毒": 6492, "Τ": 6493, "▁68.": 6494, "▁managers": 6495, "▁Will": 6496, "▁2006-2007": 6497, "重复": 6498, "▁Monday": 6499, "▁serving": 6500, "南南合作": 6501, "破": 6502, "▁Ivoire": 6503, "▁disease": 6504, "利益攸关方": 6505, "▁Hungary": 6506, "▁很好": 6507, "的保护": 6508, "▁pleased": 6509, "▁Operation": 6510, "▁character": 6511, "许可证": 6512, "▁Auditors": 6513, "ko": 6514, "和国际": 6515, "▁Indeed": 6516, "世纪": 6517, "记": 6518, "交换": 6519, "▁represents": 6520, "收到了": 6521, "让你": 6522, "参考": 6523, "跟我": 6524, "短期": 6525, "▁800": 6526, "客": 6527, "▁peacebuilding": 6528, "▁interventions": 6529, "▁overcome": 6530, "▁Finance": 6531, "▁Mechanism": 6532, "工作计划": 6533, "▁transportation": 6534, "常驻联合国代表": 6535, "▁association": 6536, "一条": 6537, "见第": 6538, "红": 6539, "蒙": 6540, "▁!": 6541, "深入": 6542, "国际公约": 6543, "赞成": 6544, "以加强": 6545, "▁Process": 6546, "▁limits": 6547, "组成的": 6548, "▁Armenia": 6549, "▁Turkish": 6550, "消除对妇女一切形式歧视公约": 6551, "中非共和国": 6552, "用来": 6553, "▁station": 6554, "/59/": 6555, "▁valuable": 6556, "一国": 6557, "校": 6558, "▁notice": 6559, "维持和平行动部": 6560, "▁asset": 6561, "的事情": 6562, "1%": 6563, "偿还": 6564, "▁Reduction": 6565, "▁periods": 6566, "▁faith": 6567, "6%": 6568, "召开的": 6569, "▁legally": 6570, "设想": 6571, "确立": 6572, "的歧视": 6573, "▁released": 6574, "▁directed": 6575, "的条款": 6576, "告诉": 6577, "压力": 6578, "▁recommend": 6579, "塞尔维亚": 6580, "▁ideas": 6581, "▁invite": 6582, "特别代表": 6583, "▁他说": 6584, "▁airspace": 6585, "小岛屿发展中国家": 6586, "不得不": 6587, "▁becoming": 6588, "效力": 6589, "▁用": 6590, "▁同": 6591, "退": 6592, "▁suffered": 6593, "▁integrate": 6594, "▁sections": 6595, "两次": 6596, "最佳做法": 6597, "▁welfare": 6598, "该决议": 6599, "监督厅": 6600, "愿": 6601, "功能": 6602, "▁69.": 6603, "including": 6604, "▁Kazakhstan": 6605, "▁reflects": 6606, "▁beautiful": 6607, "菲": 6608, "后者": 6609, "ke": 6610, "▁prohibited": 6611, "▁object": 6612, "▁Nam": 6613, "批": 6614, "届会议": 6615, "▁Mali": 6616, "/2000/": 6617, "▁FAO": 6618, "Signed": 6619, "乌": 6620, "車": 6621, "具备": 6622, "▁seem": 6623, "ating": 6624, "▁expresses": 6625, "▁trained": 6626, "▁complaint": 6627, "▁attempt": 6628, "良好": 6629, "结婚": 6630, "▁detained": 6631, "有什么": 6632, "刚": 6633, "bo": 6634, "穆": 6635, "▁Team": 6636, "▁anniversary": 6637, "▁topics": 6638, "▁distributed": 6639, "▁voting": 6640, "▁我们还": 6641, "land": 6642, "强化": 6643, "组织的": 6644, "害": 6645, "▁ten": 6646, "▁Mar": 6647, "基准": 6648, "的比例": 6649, "▁WTO": 6650, "有能力": 6651, "以便在": 6652, "就此": 6653, "等待": 6654, "he": 6655, "告诉我": 6656, "▁firm": 6657, "和促进": 6658, "多个": 6659, "强调指出": 6660, "此项": 6661, "▁說": 6662, "▁acquisition": 6663, "削减": 6664, "▁认识到": 6665, "也门": 6666, "更大的": 6667, "▁biological": 6668, "独立的": 6669, "ence": 6670, "▁facts": 6671, "▁normal": 6672, "财务报表": 6673, "一天": 6674, "各类": 6675, "ni": 6676, "▁Tunisia": 6677, "服": 6678, "▁kid": 6679, "看法": 6680, "ut": 6681, "scale": 6682, "▁modern": 6683, "ba": 6684, "强迫": 6685, "盾": 6686, "什": 6687, "副秘书长": 6688, "▁camps": 6689, "正义": 6690, "提交了": 6691, "裡": 6692, "结合": 6693, "discrimination": 6694, "▁Earth": 6695, "何": 6696, "▁whatever": 6697, "设置": 6698, "三年": 6699, "居": 6700, "No": 6701, "▁undertaking": 6702, "▁neither": 6703, "State": 6704, "第五委员会": 6705, "某种": 6706, "业绩": 6707, "官方发展援助": 6708, "的形式": 6709, "警方": 6710, "和支持": 6711, "标": 6712, "的实施": 6713, "村": 6714, "?\"": 6715, "该项目": 6716, "▁Consideration": 6717, "▁Recommendation": 6718, "▁k": 6719, "▁explained": 6720, "事故": 6721, "▁unique": 6722, "▁Observer": 6723, "ursuant": 6724, "▁returned": 6725, "▁能": 6726, "▁Slovenia": 6727, "的地位": 6728, "土": 6729, "本届会议": 6730, "的立法": 6731, "▁appeals": 6732, "信贷": 6733, "套": 6734, "要素": 6735, "▁programming": 6736, "不符合": 6737, "▁UNOPS": 6738, "一个人": 6739, "(2004": 6740, "今年": 6741, "北部": 6742, "粮农组织": 6743, "▁WHO": 6744, "弗": 6745, "在所有": 6746, "采取的": 6747, "▁influence": 6748, "营": 6749, "▁changing": 6750, "斯洛伐克": 6751, "关心": 6752, "者的": 6753, "▁trading": 6754, "▁map": 6755, "世界上": 6756, "being": 6757, "体育": 6758, "▁2010.": 6759, "You": 6760, "(2005": 6761, "▁transnational": 6762, "EC": 6763, "▁version": 6764, "▁indicates": 6765, "ca": 6766, "▁Armed": 6767, "▁bearing": 6768, "的概念": 6769, "还要": 6770, "▁served": 6771, "试验": 6772, "笑": 6773, "性和": 6774, "▁70.": 6775, "期望": 6776, "▁7,": 6777, "穷人": 6778, "回应": 6779, "单一": 6780, "▁authors": 6781, "▁insufficient": 6782, "▁waiting": 6783, "▁increases": 6784, "告诉你": 6785, "ga": 6786, "▁stuff": 6787, "ST": 6788, "ous": 6789, "拜": 6790, "在国家": 6791, "联合国开发计划署": 6792, "发射": 6793, "艾": 6794, "300": 6795, "/60/": 6796, "最佳": 6797, "先生阁下": 6798, "▁Communications": 6799, "规约": 6800, "恐怖分子": 6801, "▁advancement": 6802, "In": 6803, "▁cities": 6804, "显著": 6805, "卡塔尔": 6806, "▁preparations": 6807, "▁wished": 6808, "预": 6809, "博士": 6810, "▁Ha": 6811, "▁forums": 6812, "▁kids": 6813, "聽": 6814, "的结论": 6815, "▁Conventions": 6816, "▁在第": 6817, "所有的": 6818, "强烈": 6819, "对付": 6820, ".18": 6821, "▁bear": 6822, "將": 6823, "▁我就": 6824, "常常": 6825, "关闭": 6826, "▁explain": 6827, "▁71.": 6828, "段所述": 6829, "com": 6830, "▁largest": 6831, "▁fishing": 6832, "该项": 6833, "/2006/": 6834, "▁Invites": 6835, "▁tourism": 6836, "ge": 6837, "商定的": 6838, "頭": 6839, "额外": 6840, "并请": 6841, "缔约方大会": 6842, "忙": 6843, "打击恐怖主义": 6844, "相对": 6845, "增": 6846, "(1": 6847, "▁Provisional": 6848, "没收": 6849, "/2005/": 6850, "▁Science": 6851, "对待": 6852, "共识": 6853, "▁Salvador": 6854, "▁Bulgaria": 6855, "▁counsel": 6856, "/62/": 6857, "▁minute": 6858, "▁lasting": 6859, "该决议草案": 6860, "强调了": 6861, "成就": 6862, "架": 6863, "男": 6864, "▁deployed": 6865, "▁inventory": 6866, "ES": 6867, "是指": 6868, "▁6,": 6869, "▁structural": 6870, "石": 6871, "妇女和儿童": 6872, "=": 6873, "背景": 6874, "▁intellectual": 6875, "应由": 6876, "我国代表团": 6877, "提供关于": 6878, "▁multiple": 6879, "的机制": 6880, "▁satellite": 6881, "渠道": 6882, "计算机": 6883, "▁UNCITRAL": 6884, "转递": 6885, "停": 6886, "▁requesting": 6887, "亦": 6888, "的组织": 6889, "▁Trafficking": 6890, "▁adopting": 6891, "▁demands": 6892, "Terrorism": 6893, "▁demobilization": 6894, "两国": 6895, "缺少": 6896, "经济增长": 6897, "▁supposed": 6898, "举行会议": 6899, "还应": 6900, "突出": 6901, "▁severe": 6902, "净": 6903, "▁north": 6904, "特征": 6905, "▁transmit": 6906, "企图": 6907, "足够": 6908, "gu": 6909, "▁它还": 6910, "▁board": 6911, "月份": 6912, "▁reiterates": 6913, "▁Main": 6914, "▁accession": 6915, "流离失所": 6916, "逃": 6917, "转交": 6918, "促进发展": 6919, "▁Guidelines": 6920, "▁federal": 6921, "遇到": 6922, "微": 6923, "▁British": 6924, "士兵": 6925, "丁": 6926, "草": 6927, "▁nation": 6928, "▁largely": 6929, "▁book": 6930, "工作地点": 6931, "的援助": 6932, "拍": 6933, "部队派遣国": 6934, "丧失": 6935, "GC": 6936, "cHFFFFFF": 6937, "收到的": 6938, "▁(3)": 6939, "决定草案": 6940, "之间的关系": 6941, "▁crazy": 6942, "街": 6943, "提高妇女地位": 6944, ".13": 6945, "乍得": 6946, "男孩": 6947, "▁Defence": 6948, "▁locations": 6949, "照料": 6950, "该国政府": 6951, "▁premises": 6952, "概述": 6953, "▁liberty": 6954, "▁middle": 6955, "块": 6956, "尼加拉瓜": 6957, "▁belonging": 6958, "▁master": 6959, "齐": 6960, "▁borders": 6961, "届会": 6962, "英文": 6963, "▁built": 6964, "▁Page": 6965, "▁urge": 6966, "妇女的": 6967, "政府间组织": 6968, "然": 6969, "▁700": 6970, "提供资金": 6971, "▁我只是": 6972, "care": 6973, "ated": 6974, "▁himself": 6975, "读": 6976, "裁谈会": 6977, "▁signature": 6978, "康复": 6979, "Sub": 6980, "▁conclude": 6981, "个别": 6982, "▁maternal": 6983, "的危险": 6984, "▁sixth": 6985, "▁disposal": 6986, "西非": 6987, "▁Macedonia": 6988, "做的": 6989, "▁orders": 6990, "▁representing": 6991, "卖淫": 6992, "▁John": 6993, "▁widespread": 6994, "胡": 6995, "Bissau": 6996, "丝": 6997, "/63/": 6998, "▁66": 6999, "拨款": 7000, "马耳他": 7001, "位于": 7002, "并与": 7003, "也可以": 7004, "▁那你": 7005, "▁introduce": 7006, "▁你可以": 7007, "▁crises": 7008, "這樣": 7009, "▁文件": 7010, "▁Bolivia": 7011, "使用的": 7012, "这种情况": 7013, "即使": 7014, "教授": 7015, "当事方": 7016, "▁Acting": 7017, "▁decides": 7018, "▁copy": 7019, "条约机构": 7020, "服务的": 7021, "▁substance": 7022, "威": 7023, "妳": 7024, "▁NGO": 7025, "把它": 7026, "▁conducting": 7027, "效果": 7028, "几内亚": 7029, "if": 7030, "▁male": 7031, "▁terrorists": 7032, "▁extradition": 7033, "核可": 7034, "是一项": 7035, "议员": 7036, "类型": 7037, "▁Developed": 7038, "▁managed": 7039, "▁sponsors": 7040, "▁ministerial": 7041, "作出贡献": 7042, "▁Heads": 7043, "快速": 7044, "▁extremely": 7045, "▁missing": 7046, "几内亚比绍": 7047, "例外": 7048, "▁Chad": 7049, "▁dis": 7050, "▁secured": 7051, "国集团": 7052, "联合国机构": 7053, "现代": 7054, "▁aggression": 7055, "▁(1": 7056, "▁也许": 7057, "於": 7058, "▁tenth": 7059, "易": 7060, "▁accessible": 7061, "▁consolidated": 7062, "软件": 7063, "移交": 7064, "▁learn": 7065, "▁1999.": 7066, "每月": 7067, "底": 7068, "感觉": 7069, "ek": 7070, "政": 7071, "▁Mom": 7072, "▁hurt": 7073, "▁outreach": 7074, "mentioned": 7075, "加上": 7076, "▁72.": 7077, "▁homes": 7078, "▁Assessment": 7079, "▁devoted": 7080, "贸易法委员会": 7081, "▁degradation": 7082, "的共同": 7083, "迄今": 7084, "净额": 7085, "▁drink": 7086, "ong": 7087, "个员额": 7088, "▁Sixty": 7089, "执行委员会": 7090, "▁Guide": 7091, "za": 7092, "▁simply": 7093, "参照": 7094, "行政当局": 7095, "备": 7096, "男女平等": 7097, "▁欧洲联盟": 7098, "▁utilization": 7099, "/57/": 7100, "▁format": 7101, "▁difference": 7102, "产生了": 7103, "具": 7104, "保加利亚": 7105, "▁considerations": 7106, "▁variety": 7107, "▁decade": 7108, "整": 7109, "的进程": 7110, "的谈判": 7111, "CEDAW": 7112, "投": 7113, "例": 7114, "▁Statement": 7115, "跟踪": 7116, "专家会议": 7117, "2%": 7118, "bord": 7119, "不错": 7120, "旅游": 7121, "▁employed": 7122, "的威胁": 7123, "-20": 7124, "不需要": 7125, "彼此": 7126, "▁Document": 7127, "用品": 7128, "蒙古": 7129, "的一种": 7130, "▁acknowledged": 7131, "期限": 7132, "的数量": 7133, "▁remote": 7134, "▁sleep": 7135, "▁barriers": 7136, "▁wider": 7137, "是对": 7138, "短": 7139, "遭": 7140, "▁commit": 7141, "职等": 7142, "摊款": 7143, "▁ch": 7144, ".17": 7145, "▁Roma": 7146, "▁looked": 7147, "▁huh": 7148, "惯例": 7149, "ja": 7150, "▁hospital": 7151, "吸引": 7152, "附属机构": 7153, "▁prohibition": 7154, "信任": 7155, "扩散": 7156, "▁UNRWA": 7157, "▁showed": 7158, "line": 7159, "▁73.": 7160, "▁savings": 7161, "不论": 7162, "▁xenophobia": 7163, "一些国家": 7164, "脚": 7165, "▁Procedure": 7166, "cHFF": 7167, "▁League": 7168, "/64/": 7169, "为执行": 7170, "所载的": 7171, "▁67": 7172, "一体化": 7173, "-6": 7174, "▁army": 7175, "CRC": 7176, "▁afraid": 7177, "满": 7178, "▁discriminatory": 7179, ":1": 7180, "▁recognizing": 7181, "▁List": 7182, "分钟": 7183, "印": 7184, "▁promoted": 7185, "▁born": 7186, "的指控": 7187, "王": 7188, "确定了": 7189, "▁他是": 7190, "▁Faso": 7191, "▁starting": 7192, "击": 7193, "自动": 7194, "明白": 7195, "行事": 7196, "▁experienced": 7197, "▁第二": 7198, "布基纳法索": 7199, "▁advanced": 7200, "怀孕": 7201, "▁charged": 7202, "化学": 7203, "的使用": 7204, "巴勒斯坦人": 7205, "推行": 7206, "▁appears": 7207, "民事": 7208, "保存": 7209, "見": 7210, "认定": 7211, "▁hearing": 7212, "▁我可以": 7213, "ex": 7214, "▁warning": 7215, "其余": 7216, "1988": 7217, "▁game": 7218, "失踪": 7219, "▁Montenegro": 7220, "▁Island": 7221, "▁inadequate": 7222, "▁strength": 7223, "领取": 7224, "推迟": 7225, "等等": 7226, "▁Adviser": 7227, "▁reality": 7228, "▁adjustment": 7229, "报告的": 7230, "▁Uruguay": 7231, "▁fisheries": 7232, "当选": 7233, "说话": 7234, "▁relatively": 7235, "▁shot": 7236, "玻利维亚": 7237, "▁Environmental": 7238, "8%": 7239, "弹": 7240, "痛苦": 7241, "盖": 7242, "▁Head": 7243, "▁dad": 7244, "▁中国": 7245, "立陶宛": 7246, "射": 7247, "▁passed": 7248, "▁adverse": 7249, "▁首先": 7250, "教学": 7251, "持有": 7252, "特设委员会": 7253, "▁proceed": 7254, "外交部": 7255, "▁Doha": 7256, "为其": 7257, "▁integral": 7258, "对这些": 7259, "▁outputs": 7260, "▁Libyan": 7261, "更大": 7262, "衣": 7263, "▁remedy": 7264, "在这": 7265, "sharing": 7266, "▁Treatment": 7267, "▁gives": 7268, "ish": 7269, "奖": 7270, "补救": 7271, "该方案": 7272, "玛": 7273, "▁daughter": 7274, "▁委员会建议缔约国": 7275, "档案": 7276, "和解": 7277, "▁watch": 7278, "官方": 7279, "协调和": 7280, "将是": 7281, "▁conservation": 7282, "牌": 7283, "支": 7284, "也许": 7285, "吁请": 7286, "群": 7287, "▁Transitional": 7288, "▁lose": 7289, "還": 7290, "举办的": 7291, "▁stable": 7292, "法律规定": 7293, "▁add": 7294, "组织和": 7295, "造": 7296, "▁Cross": 7297, "▁Mauritius": 7298, "临": 7299, "▁Fuck": 7300, "▁Employment": 7301, "▁sit": 7302, "▁63": 7303, "陈述": 7304, "▁ministries": 7305, "ham": 7306, "Proliferation": 7307, "▁Cameroon": 7308, "▁disabled": 7309, "▁usually": 7310, "的手段": 7311, "▁sets": 7312, "侵略": 7313, "方案和": 7314, "▁explanation": 7315, "▁explore": 7316, "还没有": 7317, "▁Both": 7318, ":“": 7319, "沃": 7320, "培训方案": 7321, "直到": 7322, "contributing": 7323, "专家小组": 7324, "国内法": 7325, "▁mid": 7326, "形势": 7327, "紧张": 7328, "委员会的": 7329, "年度报告": 7330, "▁allowance": 7331, "▁balanced": 7332, "▁insolvency": 7333, "意义": 7334, "粮食安全": 7335, "后来": 7336, "▁functional": 7337, "他人": 7338, "(2003": 7339, "配": 7340, "共同体": 7341, "▁formed": 7342, "楼": 7343, "▁Excuse": 7344, "国家机构": 7345, "▁organize": 7346, "财政资源": 7347, "修": 7348, "难民专员办事处": 7349, "▁biennial": 7350, "该地区": 7351, "/66/": 7352, "▁#": 7353, "▁Three": 7354, "总数": 7355, "▁fixed": 7356, "▁standing": 7357, "农": 7358, "▁schedule": 7359, "组成部分": 7360, "ass": 7361, "lu": 7362, "▁Lithuania": 7363, "▁danger": 7364, "现已": 7365, "提供服务": 7366, "9%": 7367, "IV": 7368, "ncreased": 7369, "兄弟": 7370, "南部": 7371, "▁什麼": 7372, "木": 7373, "委内瑞拉": 7374, "空缺": 7375, "干嘛": 7376, "存在着": 7377, "▁salary": 7378, "施": 7379, "▁cluster": 7380, "别人": 7381, "▁Decision": 7382, "第一个": 7383, "▁Poverty": 7384, "ambia": 7385, "剥削": 7386, "▁resident": 7387, "▁online": 7388, "见附件": 7389, "": 7390, "简化": 7391, "防": 7392, "减贫": 7393, "▁Thursday": 7394, "条文": 7395, "着重": 7396, "号和": 7397, "▁Ghana": 7398, "的预算": 7399, "它的": 7400, "权利的": 7401, "处置": 7402, "拖延": 7403, "其他人": 7404, "▁Singapore": 7405, "本公约": 7406, "▁art": 7407, "▁protocol": 7408, "▁ain": 7409, "是我": 7410, "▁south": 7411, "因为它": 7412, "操作": 7413, "▁Reports": 7414, "▁Anti": 7415, "▁有些": 7416, "可能是": 7417, "▁1373": 7418, "请秘书长": 7419, "发生了": 7420, "▁exactly": 7421, "这些人": 7422, "朝": 7423, "國": 7424, "变革": 7425, "的观点": 7426, "下去": 7427, "物资": 7428, "国际刑事法院": 7429, "和国家": 7430, "▁worth": 7431, "的联合国": 7432, "根据其": 7433, "▁exception": 7434, "爸爸": 7435, "常驻代表团": 7436, "▁Nevertheless": 7437, "▁gun": 7438, "▁running": 7439, "▁啊": 7440, "在哪里": 7441, "120": 7442, "▁composition": 7443, "注册": 7444, "ina": 7445, "无论": 7446, "▁finding": 7447, "▁2008-2009": 7448, "▁equity": 7449, "pe": 7450, "▁command": 7451, "冷": 7452, "/65/": 7453, "克斯": 7454, "income": 7455, "▁Organized": 7456, "▁74.": 7457, "▁CD": 7458, "出现了": 7459, "▁displacement": 7460, "机场": 7461, "▁Water": 7462, "的协调": 7463, "联刚特派团": 7464, "杀害": 7465, "和有关": 7466, "测试": 7467, "▁Arms": 7468, "异": 7469, "▁Least": 7470, "▁southern": 7471, "▁administering": 7472, "SP": 7473, "▁duration": 7474, "装备": 7475, "▁rose": 7476, "▁reply": 7477, "保护和": 7478, "▁dedicated": 7479, "洗": 7480, "做什么": 7481, "负": 7482, "顺利": 7483, "min": 7484, "爱沙尼亚": 7485, "进来": 7486, "▁occupying": 7487, "桑": 7488, "汇率": 7489, "▁replace": 7490, "▁seeks": 7491, "和我": 7492, "进行合作": 7493, "问责制": 7494, "机构和": 7495, "妇女和女孩": 7496, "▁IN": 7497, "很少": 7498, "/5": 7499, "卢": 7500, "om": 7501, "▁procedural": 7502, "▁提交人": 7503, "最新": 7504, "夜": 7505, "缔结": 7506, "06": 7507, "該": 7508, "事业": 7509, "▁killing": 7510, "图书馆": 7511, "▁fish": 7512, "▁zones": 7513, "▁claimed": 7514, "▁fun": 7515, "▁mitigation": 7516, "▁doubt": 7517, "这项工作": 7518, "全体": 7519, "欧元": 7520, "000": 7521, "社会和文化权利": 7522, "▁adequately": 7523, "▁9,": 7524, "外国直接投资": 7525, "私营": 7526, "支援": 7527, "总干事": 7528, "问责": 7529, "永远": 7530, "融入": 7531, "▁76.": 7532, "無": 7533, "的人口": 7534, "▁想": 7535, "刚刚": 7536, "世界人权宣言": 7537, "▁operate": 7538, "▁decline": 7539, "▁intervention": 7540, "进一步加强": 7541, "qui": 7542, "▁thousands": 7543, "▁sides": 7544, "的有效": 7545, "▁performed": 7546, "▁只要": 7547, "接近": 7548, "▁rejected": 7549, "▁Bar": 7550, "": 7551, "150": 7552, "好的": 7553, "治": 7554, "席": 7555, "▁爸爸": 7556, "▁很": 7557, "(2006": 7558, "▁这里": 7559, "▁Today": 7560, "▁w": 7561, "工程处": 7562, "▁Ro": 7563, "就能": 7564, "▁1996,": 7565, "▁Annual": 7566, "dy": 7567, "卢森堡": 7568, "杰": 7569, "年前": 7570, "出于": 7571, "▁別": 7572, "▁秘书长的报告": 7573, "▁75.": 7574, "▁Terrorism": 7575, "规章": 7576, "飞行": 7577, "暂时": 7578, "▁Burkina": 7579, "▁Yugoslav": 7580, "好吗": 7581, "▁Local": 7582, "▁$1": 7583, "乱": 7584, "▁reviewing": 7585, "系统的": 7586, "▁voice": 7587, "▁custody": 7588, "有关的问题": 7589, "的声明": 7590, "钻石": 7591, "了嗎": 7592, ".14": 7593, "▁promise": 7594, "拉脱维亚": 7595, "音": 7596, "▁与此同时": 7597, "▁continuous": 7598, "/54/": 7599, "海上": 7600, "就可以": 7601, "▁nearly": 7602, "▁Through": 7603, "▁太": 7604, "▁Saint": 7605, "▁14,": 7606, "因特网": 7607, "▁facility": 7608, "▁requiring": 7609, "▁heavy": 7610, "事实上": 7611, "负债": 7612, "▁Protocols": 7613, "拉丁美洲": 7614, "aH": 7615, "战略计划": 7616, "科技": 7617, "据称": 7618, "方面的作用": 7619, "的唯一": 7620, "▁n": 7621, "人居署": 7622, "进展情况": 7623, "▁monthly": 7624, "men": 7625, "▁accountable": 7626, "张": 7627, "秘书长的报告": 7628, "▁贸发会议": 7629, "方案的": 7630, "期待": 7631, "身体": 7632, "▁非洲": 7633, "看来": 7634, "ani": 7635, "▁occasion": 7636, "任职": 7637, "知识产权": 7638, "缓解": 7639, "华": 7640, "次全体会议": 7641, "洗钱": 7642, "III": 7643, "儿童的": 7644, "▁adjustments": 7645, "它们的": 7646, "解除": 7647, "裁定": 7648, "▁Contents": 7649, "疟疾": 7650, "▁请秘书长": 7651, "▁Viet": 7652, "外层空间": 7653, "▁我不想": 7654, "画": 7655, "感染": 7656, "毛": 7657, "的程度": 7658, "▁treated": 7659, "方针": 7660, "ner": 7661, "绑架": 7662, "▁meant": 7663, "▁negotiation": 7664, "▁execution": 7665, "▁visited": 7666, "▁日本": 7667, "国际劳工组织": 7668, "▁determining": 7669, "经费的筹措": 7670, "▁Constitutional": 7671, "质": 7672, "end": 7673, "丽": 7674, "脆弱": 7675, "他在": 7676, "动员": 7677, "登记册": 7678, "......": 7679, "▁greatest": 7680, "演": 7681, "包括通过": 7682, "▁financed": 7683, "▁exclusion": 7684, "的必要性": 7685, "▁vocational": 7686, "版": 7687, "遣返": 7688, "信仰": 7689, "基地": 7690, "丈夫": 7691, "随": 7692, "▁Moldova": 7693, "创建": 7694, "▁Welcoming": 7695, "部长级会议": 7696, "▁reaching": 7697, "导弹": 7698, "示范法": 7699, "附近": 7700, "公民权利和政治权利国际公约": 7701, "▁computer": 7702, "▁opposition": 7703, "号决议和": 7704, "▁人们": 7705, "泰": 7706, "▁Delegations": 7707, "法定": 7708, "总结": 7709, "Self": 7710, "▁Youth": 7711, "区分": 7712, "/61/": 7713, "坏": 7714, "▁pertaining": 7715, "谨": 7716, "▁Jamaica": 7717, "▁transfers": 7718, "▁Land": 7719, "为何": 7720, "▁新": 7721, "道路": 7722, "并不是": 7723, "贩运人口": 7724, "▁covers": 7725, "妇女权利": 7726, "▁Un": 7727, "的某些": 7728, "委员会在": 7729, "毛里求斯": 7730, "永久": 7731, "▁import": 7732, "▁flow": 7733, "业务活动": 7734, "侧重于": 7735, "蛋": 7736, "▁formulated": 7737, "ya": 7738, "单方面": 7739, "▁(2001)": 7740, "/2004/": 7741, "▁commended": 7742, "培训班": 7743, "一旦": 7744, "▁equally": 7745, "ev": 7746, "▁page": 7747, "▁Election": 7748, "公务员": 7749, "和非": 7750, "Governing": 7751, "开会": 7752, "提供支持": 7753, "的限制": 7754, "▁ammunition": 7755, "冰岛": 7756, "并就": 7757, "国家和国际": 7758, "的许多": 7759, "▁Tuesday": 7760, "下述": 7761, "▁choose": 7762, "造成了": 7763, "▁Reaffirms": 7764, "所做的": 7765, "▁stress": 7766, "▁consolidation": 7767, "/53/": 7768, "▁finds": 7769, "信通技术": 7770, "▁award": 7771, "▁deaths": 7772, "配合": 7773, "的职责": 7774, "▁generation": 7775, "▁Wednesday": 7776, "运行": 7777, "與": 7778, "▁walk": 7779, "变成": 7780, "▁hate": 7781, "妇女和女童": 7782, "将由": 7783, "AL": 7784, "所需经费": 7785, "一樣": 7786, "和保护": 7787, "▁detainees": 7788, "▁decades": 7789, "▁objection": 7790, "联合国秘书长": 7791, "边境": 7792, "▁demonstrate": 7793, "签署了": 7794, "交通": 7795, "▁picture": 7796, "▁2004-2005": 7797, "方便": 7798, "家人": 7799, "▁Statements": 7800, "都在": 7801, "▁我有": 7802, "等问题": 7803, "国际文书": 7804, "/2003/": 7805, "款项": 7806, "▁revision": 7807, "很高兴": 7808, "▁movements": 7809, "删除": 7810, "拟议的": 7811, "ci": 7812, "探": 7813, "证书": 7814, "说什么": 7815, "▁2011.": 7816, "影响的": 7817, "所需资源": 7818, "许多国家": 7819, "外国人": 7820, "(2001": 7821, "別": 7822, "移徙者": 7823, "生存": 7824, "政府和": 7825, "▁projected": 7826, "是根据": 7827, "▁conjunction": 7828, "容易": 7829, "▁properly": 7830, "两项": 7831, "/55/": 7832, "痛": 7833, "▁contingent": 7834, "▁realize": 7835, "互联网": 7836, "的职能": 7837, "▁overview": 7838, "游": 7839, "尽早": 7840, "获得通过": 7841, "▁77.": 7842, "项目厅": 7843, "長": 7844, "▁subparagraph": 7845, "巴拿马": 7846, "时间表": 7847, "▁village": 7848, "邦": 7849, "韦": 7850, "板": 7851, "透明度": 7852, "和你": 7853, "紧": 7854, "ph": 7855, "▁Drug": 7856, "区域合作": 7857, "後": 7858, "à": 7859, "该公约": 7860, ":《": 7861, "▁vehicle": 7862, "加沙": 7863, "归": 7864, "理事会第": 7865, "ING": 7866, "▁那些": 7867, "核武器国家": 7868, "第三次": 7869, "▁simple": 7870, "病毒": 7871, "▁六": 7872, "ally": 7873, ".1),": 7874, "凡": 7875, ".19": 7876, "▁guaranteed": 7877, "警告": 7878, "「": 7879, "▁Inspection": 7880, "存在的": 7881, "▁submissions": 7882, "▁drew": 7883, "ot": 7884, "04": 7885, "▁successfully": 7886, "▁Malta": 7887, "1373(2001)": 7888, "▁Yemen": 7889, "▁biodiversity": 7890, "会议的": 7891, "..": 7892, "▁acceptable": 7893, "民兵": 7894, "動": 7895, "农民": 7896, "▁900": 7897, "▁这项": 7898, "年底": 7899, "▁fiscal": 7900, "整体": 7901, "方案预算": 7902, "▁Appeals": 7903, "▁City": 7904, "竞争力": 7905, "▁understood": 7906, "同样的": 7907, "多哈": 7908, "▁Procurement": 7909, "▁Among": 7910, "亚太经社会": 7911, "分摊": 7912, "的计划": 7913, "nterim": 7914, "怕": 7915, "翻译": 7916, "▁“(": 7917, "断": 7918, "▁stages": 7919, "▁assisted": 7920, "国家办事处": 7921, "▁commodity": 7922, "人权和基本自由": 7923, "so": 7924, "紧急情况": 7925, "依靠": 7926, "引": 7927, "编写的": 7928, "运用": 7929, ">>yue_Hant<<": 7930, "定居点": 7931, "▁path": 7932, "示范": 7933, "一场": 7934, "▁playing": 7935, "▁Miss": 7936, "在哪": 7937, "性剥削": 7938, "▁Educational": 7939, "以支持": 7940, "发起": 7941, "预防和": 7942, "各组织": 7943, "维持和平特派团": 7944, "告知": 7945, "不过": 7946, "不够": 7947, "▁allowing": 7948, "极为": 7949, "意识到": 7950, "条款草案": 7951, "高级别会议": 7952, "給": 7953, "变动": 7954, "▁professionals": 7955, "报告员": 7956, "▁track": 7957, "行为者": 7958, "坦桑尼亚联合共和国": 7959, "的受害者": 7960, "▁hunger": 7961, "▁detail": 7962, "上午": 7963, "可靠": 7964, "野": 7965, "▁write": 7966, "▁teaching": 7967, "常设": 7968, "将来": 7969, "▁Say": 7970, "自治": 7971, ".2/": 7972, "▁你会": 7973, "con": 7974, "培训和": 7975, "▁equivalent": 7976, "▁meaning": 7977, "分区域": 7978, "02": 7979, "▁Standing": 7980, "动物": 7981, "圆桌会议": 7982, "的联系": 7983, "▁经济及社会理事会": 7984, "▁就像": 7985, "阐述": 7986, "▁denied": 7987, "和程序": 7988, "▁recalls": 7989, "ted": 7990, "未经": 7991, "▁stock": 7992, "▁那个": 7993, "的会员国": 7994, "▁notification": 7995, "追": 7996, "表示关注": 7997, "的地区": 7998, "▁哈": 7999, "oriented": 8000, "▁vol": 8001, "探索": 8002, "▁mercury": 8003, "乌拉圭": 8004, "▁lists": 8005, "▁reliable": 8006, "▁Con": 8007, "們": 8008, "贝宁": 8009, "▁Resource": 8010, "父亲": 8011, "▁refers": 8012, "▁Settlements": 8013, "▁claimant": 8014, "▁customary": 8015, "议事规则": 8016, "董事会": 8017, "▁Ra": 8018, "国际标准": 8019, "▁lawyers": 8020, "▁signing": 8021, "▁Transport": 8022, "侵犯人权": 8023, "抓": 8024, "▁invites": 8025, "失败": 8026, "有了": 8027, "▁destroyed": 8028, "▁neighbouring": 8029, "雅": 8030, "▁abroad": 8031, "秘密": 8032, "去了": 8033, "▁harassment": 8034, "/7": 8035, "大大": 8036, "加强联合国": 8037, "/2002/": 8038, "的适当": 8039, "▁newly": 8040, "▁flexibility": 8041, "科索沃特派团": 8042, "能否": 8043, "▁coherent": 8044, "▁fast": 8045, "促请": 8046, "▁spent": 8047, "▁murder": 8048, "电影": 8049, "▁completely": 8050, "有着": 8051, "▁defenders": 8052, "▁thereto": 8053, "▁behaviour": 8054, "贾": 8055, "▁agents": 8056, "▁relative": 8057, "压": 8058, "08": 8059, "形": 8060, "守": 8061, "不稳定": 8062, "利比亚": 8063, "欧": 8064, "对联合国": 8065, "各机构": 8066, "/2007/": 8067, "▁wall": 8068, "▁tolerance": 8069, "意外": 8070, "2008-2009": 8071, "ize": 8072, "▁前": 8073, "纠正": 8074, "▁Country": 8075, "分段": 8076, "▁Evaluation": 8077, "巴林": 8078, "的提案": 8079, "▁corresponding": 8080, "▁offers": 8081, "▁Slovakia": 8082, "每一个": 8083, "▁suggestions": 8084, "派遣": 8085, "格式": 8086, "▁至于": 8087, "为基础的": 8088, "干什么": 8089, "▁larger": 8090, "废除": 8091, "送交": 8092, "▁copies": 8093, "排除": 8094, "还需要": 8095, "区别": 8096, "在一个": 8097, "▁你有": 8098, "▁Penal": 8099, "▁Sure": 8100, "和机构": 8101, "实施的": 8102, "▁academic": 8103, "晚上": 8104, "▁78.": 8105, "▁transmitting": 8106, "谢": 8107, "牙买加": 8108, "▁加拿大": 8109, "▁households": 8110, "▁closer": 8111, "▁interaction": 8112, "劳": 8113, "指称": 8114, "举": 8115, "▁stresses": 8116, "十二": 8117, "表示欢迎": 8118, "编辑": 8119, "▁drawing": 8120, "▁scheme": 8121, "被迫": 8122, "果": 8123, "载": 8124, "▁sick": 8125, "/2001/": 8126, "▁stocks": 8127, "以此": 8128, "阐明": 8129, "争议": 8130, "倡导": 8131, ".16": 8132, "可以在": 8133, "后续": 8134, "▁1989": 8135, "哈萨克斯坦": 8136, "▁没错": 8137, "日起": 8138, "▁Recommendations": 8139, "加强了": 8140, "▁none": 8141, "1980": 8142, "保密": 8143, "公报": 8144, "▁qualified": 8145, "类似的": 8146, "給我": 8147, "对象": 8148, "▁constituted": 8149, "▁prejudice": 8150, "http": 8151, "ities": 8152, "▁Indian": 8153, "▁Before": 8154, "都会": 8155, "把我": 8156, "作为一个": 8157, "指数": 8158, "▁Jesus": 8159, "▁各国": 8160, "▁invasion": 8161, "▁来吧": 8162, "分配给": 8163, "▁68": 8164, "▁enemy": 8165, "▁sovereign": 8166, "的经费": 8167, "▁ship": 8168, "coming": 8169, "正如": 8170, "▁Rio": 8171, "穆斯林": 8172, "真是": 8173, "▁coastal": 8174, "第四": 8175, "共和国总统": 8176, "▁你能": 8177, "年轻人": 8178, "▁extrabudgetary": 8179, "十分重要": 8180, "ster": 8181, "非常重要": 8182, "强制": 8183, "▁Similarly": 8184, "▁sister": 8185, "开展合作": 8186, "▁linkages": 8187, "矿": 8188, "▁bill": 8189, "03": 8190, "阿尔巴尼亚": 8191, "迷": 8192, "▁breach": 8193, "▁Albania": 8194, "轻": 8195, "披露": 8196, "▁79.": 8197, "害怕": 8198, "▁repatriation": 8199, "關": 8200, "也会": 8201, "仅仅": 8202, "▁secret": 8203, "▁finally": 8204, "形式的": 8205, "升级": 8206, "成功地": 8207, "▁accomplishments": 8208, "对妇女": 8209, "▁household": 8210, "同等": 8211, "决": 8212, "▁distinction": 8213, "▁German": 8214, "▁buy": 8215, "航空": 8216, "将有助于": 8217, "人类住区": 8218, "上帝": 8219, "进行审查": 8220, "多次": 8221, "▁oral": 8222, "▁全球": 8223, "录": 8224, "▁productivity": 8225, "▁我能": 8226, "自身": 8227, "报道": 8228, "当事人": 8229, "▁witness": 8230, "▁sect": 8231, "的长期": 8232, "▁各": 8233, "和非政府组织": 8234, "执行情况的": 8235, "促成": 8236, "但在": 8237, "▁arbitration": 8238, "▁Pre": 8239, "背": 8240, "▁conventional": 8241, "/6": 8242, "▁volume": 8243, "精": 8244, "镇": 8245, "排放量": 8246, "▁undermine": 8247, "和相关": 8248, "▁objects": 8249, "适合": 8250, "法律和": 8251, "提案国": 8252, "▁Help": 8253, "▁black": 8254, "召集": 8255, "▁camp": 8256, "▁沒有": 8257, "我会": 8258, "列支敦士登": 8259, "▁Transnational": 8260, "管理国": 8261, "的最新": 8262, "我们必须": 8263, "太平洋": 8264, "足": 8265, "的改革": 8266, ".1/": 8267, "▁inputs": 8268, "▁hazardous": 8269, "ji": 8270, "2006-2007": 8271, "不妨": 8272, "▁forget": 8273, "并加强": 8274, "法律援助": 8275, "▁quickly": 8276, "▁assessing": 8277, "潜力": 8278, "随着": 8279, "客观": 8280, "▁pregnant": 8281, "迫切需要": 8282, "▁incurred": 8283, "▁presidential": 8284, "店": 8285, "▁votes": 8286, "▁anymore": 8287, "▁convinced": 8288, "▁composed": 8289, "巨大": 8290, "缺陷": 8291, "▁GEF": 8292, "▁strict": 8293, "▁evaluate": 8294, "身上": 8295, "作业": 8296, "和安全": 8297, "某": 8298, "uk": 8299, "ap": 8300, "▁Against": 8301, "mar": 8302, "▁目录": 8303, "▁facilitation": 8304, "▁landlocked": 8305, "▁Durban": 8306, "也在": 8307, "▁convening": 8308, "▁thereon": 8309, "不存在": 8310, "取得的进展": 8311, "50%": 8312, "▁小组": 8313, "第一章": 8314, "――": 8315, "▁explosive": 8316, "保健服务": 8317, "警官": 8318, "灵活": 8319, "▁grants": 8320, "▁随着": 8321, "规划和": 8322, "的存在": 8323, "大会主席": 8324, "一部分": 8325, "表格": 8326, "▁instances": 8327, "是個": 8328, "填补": 8329, "时代": 8330, "▁forests": 8331, "▁issuance": 8332, "看见": 8333, "一贯": 8334, "实践": 8335, "这些建议": 8336, "▁Luxembourg": 8337, "世界卫生组织": 8338, "为实现": 8339, "▁alive": 8340, "喜歡": 8341, "援引": 8342, "是我的": 8343, "▁phenomenon": 8344, "▁relate": 8345, "▁让我": 8346, "经合组织": 8347, "▁renewed": 8348, "▁input": 8349, "數": 8350, "各缔约国": 8351, "厂": 8352, "09": 8353, "年为": 8354, "▁enforced": 8355, "▁declarations": 8356, "装置": 8357, "▁district": 8358, "庇护": 8359, "▁Latvia": 8360, "具体的": 8361, "附件二": 8362, "22\\": 8363, "▁method": 8364, "稱": 8365, "联合国在": 8366, "▁package": 8367, "的性质": 8368, "imbabwe": 8369, "休": 8370, "▁trouble": 8371, "▁sensitive": 8372, "的证据": 8373, "注": 8374, "▁Progress": 8375, "文化和": 8376, "ach": 8377, "纳米比亚": 8378, "▁Investment": 8379, "乐": 8380, "▁bed": 8381, "PC": 8382, "▁psychological": 8383, "▁或者": 8384, "(2007": 8385, "的未来": 8386, "▁Could": 8387, "▁ON": 8388, "les": 8389, "肉": 8390, "建设和平委员会": 8391, "汉": 8392, "互动": 8393, "treatment": 8394, "FCCC": 8395, "▁train": 8396, "戴": 8397, "▁应该": 8398, "饥饿": 8399, "▁若": 8400, "凯": 8401, "▁Which": 8402, "▁facilitated": 8403, "▁Jamahiriya": 8404, "▁Every": 8405, "农村妇女": 8406, "▁transitional": 8407, "藏": 8408, "▁evaluations": 8409, "的变化": 8410, "ki": 8411, "论": 8412, "af": 8413, "AP": 8414, "任意": 8415, "▁comprising": 8416, "信息系统": 8417, "繁荣": 8418, "▁reaffirm": 8419, "▁Emergency": 8420, "▁proceeds": 8421, "▁怎么了": 8422, "持久": 8423, "Al": 8424, "地理": 8425, "▁Arabic": 8426, "▁applies": 8427, "场所": 8428, "▁laid": 8429, "和实施": 8430, "联合国人权事务高级专员办事处": 8431, "▁Advancement": 8432, "▁fulfilment": 8433, "本人": 8434, "▁MONUC": 8435, "环": 8436, "我就": 8437, "仍在": 8438, "▁mom": 8439, "的家庭": 8440, "条的规定": 8441, "▁我不是": 8442, "摩": 8443, "是不是": 8444, "明天": 8445, "置": 8446, "兒": 8447, "▁Migration": 8448, "▁responded": 8449, "在整个": 8450, "借": 8451, "本区域": 8452, "▁filed": 8453, "级别": 8454, "▁75": 8455, "▁seized": 8456, "PRST": 8457, "hi": 8458, "受理": 8459, "lan": 8460, "增加到": 8461, "▁委员会在": 8462, "最多": 8463, "▁Sam": 8464, "▁fill": 8465, "▁therein": 8466, "应急": 8467, "▁2012.": 8468, "▁gains": 8469, "▁allegedly": 8470, "民间社会组织": 8471, "少数": 8472, "听取": 8473, "富": 8474, "這些": 8475, "可持续的": 8476, "▁临时议程": 8477, "冲": 8478, "▁harmonization": 8479, "越南": 8480, "01": 8481, "万人": 8482, "▁inspection": 8483, "高于": 8484, "更正": 8485, "▁analytical": 8486, "描述": 8487, "债权人": 8488, "▁Equal": 8489, "莎": 8490, "撤销": 8491, "▁Within": 8492, "▁techniques": 8493, "有责任": 8494, "条和第": 8495, "欧洲委员会": 8496, "▁amounted": 8497, "▁purchase": 8498, "把你": 8499, "侵害": 8500, "第二个": 8501, "思": 8502, "▁我们必须": 8503, "提交的报告": 8504, "▁Mongolia": 8505, "▁wage": 8506, "▁slow": 8507, "▁ma": 8508, "未成年人": 8509, "ley": 8510, "▁Nicaragua": 8511, "▁annually": 8512, "假设": 8513, "現在": 8514, "观察团": 8515, "▁他还": 8516, "灾难": 8517, "要去": 8518, "这些措施": 8519, "RE": 8520, "难民营": 8521, "▁et": 8522, "▁continent": 8523, "▁來": 8524, "的现有": 8525, "库存": 8526, "的趋势": 8527, "▁多": 8528, "位置": 8529, "兩": 8530, "▁80.": 8531, "担保权": 8532, "入境": 8533, "树": 8534, "混": 8535, "脱": 8536, "1989": 8537, "哦": 8538, "冲突后": 8539, "▁Basel": 8540, "▁collect": 8541, "▁Regarding": 8542, "ig": 8543, "世界贸易组织": 8544, "ö": 8545, "秩序": 8546, "owned": 8547, "谅解备忘录": 8548, "之间的合作": 8549, "/52/": 8550, "的局势": 8551, "国家安全": 8552, "▁Sahara": 8553, "随时": 8554, "封锁": 8555, "▁violent": 8556, "▁instructions": 8557, "▁seventh": 8558, "ana": 8559, "ez": 8560, "▁mention": 8561, "▁ratify": 8562, "监测和": 8563, "laundering": 8564, "▁現在": 8565, "所作": 8566, "▁testing": 8567, "研究报告": 8568, "▁disseminate": 8569, "不行": 8570, "▁Uzbekistan": 8571, "▁vacancy": 8572, "意识": 8573, "金融机构": 8574, "▁judgement": 8575, "一點": 8576, "ung": 8577, "▁balances": 8578, "▁platform": 8579, "▁Decree": 8580, "▁attributable": 8581, "港": 8582, "▁alternatives": 8583, "涉及到": 8584, "▁doctor": 8585, "第六条": 8586, "ㄓ": 8587, "▁farmers": 8588, "▁reflecting": 8589, "▁你说": 8590, "▁我觉得": 8591, "特别程序": 8592, "au": 8593, "▁talks": 8594, "▁Hold": 8595, "莫桑比克": 8596, "▁hot": 8597, "代理": 8598, "公路": 8599, "▁经": 8600, "正确": 8601, "gi": 8602, "▁double": 8603, "真相": 8604, "ED": 8605, "▁couple": 8606, "的总体": 8607, "▁审议": 8608, "▁incorporate": 8609, "散发": 8610, "以及与": 8611, "▁innovation": 8612, "有个": 8613, "在非洲": 8614, "并于": 8615, "▁maritime": 8616, "ler": 8617, "▁begun": 8618, "▁occur": 8619, "▁Combat": 8620, "▁expect": 8621, "安全理事会主席": 8622, "或在": 8623, "▁certainly": 8624, "妈妈": 8625, "容忍": 8626, "以外的": 8627, "▁mobilize": 8628, "▁texts": 8629, "▁Bill": 8630, "而在": 8631, "订立": 8632, "▁1995,": 8633, "▁bound": 8634, "▁drive": 8635, "留下": 8636, "只有在": 8637, "▁regardless": 8638, "不在": 8639, "丹": 8640, "▁Once": 8641, "的框架内": 8642, "行政和": 8643, "某个": 8644, "铁": 8645, "药品": 8646, "▁storage": 8647, "▁impossible": 8648, "▁Building": 8649, "▁genuine": 8650, "工作人员的": 8651, "氣": 8652, "公共部门": 8653, "▁incident": 8654, "fa": 8655, "广播": 8656, "特点": 8657, "高级专员": 8658, "▁reportedly": 8659, "报告第": 8660, "▁surveys": 8661, "提供有关": 8662, "▁Audit": 8663, "▁contractual": 8664, "▁fell": 8665, "▁让": 8666, "大型": 8667, "▁schemes": 8668, "的身份": 8669, "略": 8670, "▁propose": 8671, "接收": 8672, "▁Would": 8673, "妮": 8674, "冰": 8675, "▁gets": 8676, "强制性": 8677, "RC": 8678, "▁software": 8679, "▁responding": 8680, "▁seat": 8681, "战斗": 8682, "不扩散": 8683, "▁Panama": 8684, "都能": 8685, "而已": 8686, "▁separation": 8687, "▁introducing": 8688, "的规则": 8689, "小型": 8690, ".2)": 8691, "中亚": 8692, "了一些": 8693, "▁dimensions": 8694, "▁machinery": 8695, "▁title": 8696, "▁moved": 8697, "的事件": 8698, "▁drop": 8699, "不好": 8700, "安全部队": 8701, "▁Industrial": 8702, "变得": 8703, "▁cold": 8704, "的罪行": 8705, "这些活动": 8706, "暴": 8707, "联合国环境规划署": 8708, "▁negotiating": 8709, "去年": 8710, "号法令": 8711, "▁8,": 8712, "相当于": 8713, "端": 8714, "way": 8715, "停火": 8716, "▁arrangement": 8717, "在该": 8718, "样": 8719, "委": 8720, "的成功": 8721, "各区域": 8722, "▁currency": 8723, "07": 8724, "學": 8725, "得不到": 8726, "用以": 8727, "▁accordingly": 8728, "▁resolved": 8729, "前南斯拉夫的马其顿共和国": 8730, "的支助": 8731, "的最后": 8732, "洪都拉斯": 8733, "的优先事项": 8734, "ud": 8735, "消息": 8736, "▁81.": 8737, "违背": 8738, "▁Former": 8739, "▁reserve": 8740, "包容性": 8741, "▁controlled": 8742, "▁Iceland": 8743, "▁Put": 8744, "潜在": 8745, "ven": 8746, "懂": 8747, "▁consultants": 8748, "引起的": 8749, "▁pollution": 8750, ".20": 8751, "固定": 8752, "效益": 8753, "免": 8754, "▁injured": 8755, "▁organizing": 8756, "▁removal": 8757, "▁小组委员会": 8758, "的倡议": 8759, "办公": 8760, "完成了": 8761, "就要": 8762, "▁与会者": 8763, "▁possession": 8764, "流离失所者": 8765, "ber": 8766, "安置": 8767, "▁回顾其": 8768, "紧迫": 8769, "多样化": 8770, "他们在": 8771, "进去": 8772, "差别": 8773, "限": 8774, "Part": 8775, "▁applying": 8776, "▁lawyer": 8777, "▁define": 8778, "▁delays": 8779, "▁快点": 8780, "▁ending": 8781, "▁flexible": 8782, "▁notably": 8783, "▁continuation": 8784, "▁Keep": 8785, "减少了": 8786, "CD": 8787, "最近的": 8788, "▁希望": 8789, "助": 8790, "的业务": 8791, "▁pursued": 8792, "璶": 8793, "▁UNMIK": 8794, "▁northern": 8795, "各位": 8796, "国家人权机构": 8797, "佛": 8798, "电信": 8799, "成绩": 8800, "复": 8801, "卖": 8802, "▁patterns": 8803, "麻烦": 8804, "人员的": 8805, "龙": 8806, "剥夺": 8807, "加剧": 8808, "▁rich": 8809, "症": 8810, "明确的": 8811, "▁沒": 8812, "日关于": 8813, "的权力": 8814, "艺术": 8815, "散": 8816, "过境": 8817, "一般性辩论": 8818, "并促进": 8819, "pa": 8820, "余额": 8821, "培养": 8822, "int": 8823, "▁Montreal": 8824, "▁世界": 8825, "▁mutually": 8826, "罗马": 8827, "从未": 8828, "▁wastes": 8829, "将为": 8830, "▁cooperative": 8831, "▁deeply": 8832, "吨": 8833, "坚定": 8834, "2004-2005": 8835, "\"?": 8836, "史": 8837, "户": 8838, "的投资": 8839, ")]": 8840, "▁transaction": 8841, "▁limitations": 8842, "乌兹别克斯坦": 8843, "io": 8844, "▁Ah": 8845, "▁turned": 8846, "你是": 8847, "而且还": 8848, "金额": 8849, "▁summit": 8850, "▁hour": 8851, "政策和方案": 8852, "▁genocide": 8853, "▁ban": 8854, "▁greatly": 8855, "▁exists": 8856, "的那样": 8857, "这一进程": 8858, "响应": 8859, "巨大的": 8860, "决策者": 8861, "▁class": 8862, "RES": 8863, "未来的": 8864, "vis": 8865, "方面取得的进展": 8866, "ik": 8867, "po": 8868, "▁struggle": 8869, "倍": 8870, "▁Car": 8871, "的精神": 8872, "▁percent": 8873, "和监测": 8874, "American": 8875, "▁receipt": 8876, "安理会成员": 8877, "▁Relations": 8878, "▁quarter": 8879, "▁儿童基金会": 8880, "▁sixtieth": 8881, "▁appreciate": 8882, "▁presents": 8883, "准": 8884, "执行秘书": 8885, "上面": 8886, "批款": 8887, "信息和": 8888, "▁municipal": 8889, "和文化": 8890, "▁Sa": 8891, "▁CEDAW": 8892, "港口": 8893, "der": 8894, "该缔约国": 8895, "▁Estonia": 8896, "联黎部队": 8897, "使他们": 8898, "复杂的": 8899, "1,": 8900, "▁Atomic": 8901, "今晚": 8902, "作出努力": 8903, "▁respected": 8904, "煽动": 8905, "阿拉伯利比亚民众国": 8906, "部门的": 8907, "的效力": 8908, "▁journalists": 8909, "▁2015": 8910, "刀": 8911, "▁allows": 8912, "绝": 8913, "年初": 8914, "8000}": 8915, "▁program": 8916, "▁telling": 8917, "是你": 8918, "▁inhuman": 8919, "第七": 8920, "▁earth": 8921, "国家方案": 8922, "对所有": 8923, "▁Emirates": 8924, "配偶": 8925, "▁cruel": 8926, "▁Benin": 8927, "va": 8928, "▁Expresse": 8929, "▁Capacity": 8930, "旧": 8931, "核实": 8932, "辅助": 8933, "对策": 8934, "What": 8935, "▁managing": 8936, "▁eligible": 8937, "▁yours": 8938, "出售": 8939, "▁印度": 8940, "的不同": 8941, "首席": 8942, "否则": 8943, "▁Facility": 8944, "的过程中": 8945, "我在": 8946, "▁艾": 8947, "250": 8948, "▁formulate": 8949, ",700": 8950, "该问题": 8951, "不必": 8952, "▁anticipated": 8953, "移动": 8954, "▁liaison": 8955, "called": 8956, "移": 8957, "何种": 8958, "很快": 8959, "妇发基金": 8960, "核定": 8961, "建设性": 8962, "发了言": 8963, "▁protocols": 8964, "▁drinking": 8965, "▁liabilities": 8966, "视察": 8967, "▁valid": 8968, "硂": 8969, "▁orally": 8970, "▁如果我": 8971, "▁附件": 8972, "政权": 8973, "行为的": 8974, "退休": 8975, "大力": 8976, "▁root": 8977, "▁天啊": 8978, "▁street": 8979, "▁82.": 8980, "查阅": 8981, "招募": 8982, "预防犯罪": 8983, "歌": 8984, "話": 8985, "▁regimes": 8986, "所在": 8987, "▁Data": 8988, "摆": 8989, "也可": 8990, "Ivoire": 8991, "卫生组织": 8992, "▁ordinary": 8993, "甲": 8994, "▁Prohibition": 8995, "▁Directorate": 8996, "对该": 8997, "机构的": 8998, "赠款": 8999, "▁deprived": 9000, "的对话": 9001, "ran": 9002, "据": 9003, "▁environmentally": 9004, "▁foundation": 9005, "薪": 9006, "所作的努力": 9007, "结束后": 9008, "设定": 9009, "(3)": 9010, "▁remove": 9011, "▁(2004)": 9012, "劳动力": 9013, "▁我国代表团": 9014, "舍": 9015, "专门机构": 9016, "体现": 9017, "巴塞尔公约": 9018, "素": 9019, "▁dimension": 9020, "敏感": 9021, "者和": 9022, "听取了": 9023, "ey": 9024, "ny": 9025, "▁capable": 9026, "▁这就是": 9027, "▁video": 9028, "▁careful": 9029, "一方": 9030, "缴款": 9031, "进行调查": 9032, "婚": 9033, "全球环境基金": 9034, "▁expanding": 9035, "也将": 9036, "▁providers": 9037, "▁reaffirms": 9038, "所有会员国": 9039, "的事项": 9040, "ari": 9041, "近东救济工程处": 9042, "适用的": 9043, "▁SBSTA": 9044, "▁83.": 9045, "阿拉伯联合酋长国": 9046, "ze": 9047, "阿尔": 9048, "秘书": 9049, "联合国各机构": 9050, "▁memorandum": 9051, "一个国家": 9052, ".25": 9053, "▁Liechtenstein": 9054, "10%": 9055, "司法部": 9056, "▁1998.": 9057, "▁Organizations": 9058, "▁Closed": 9059, "▁television": 9060, "采取的措施": 9061, "的障碍": 9062, "表示赞赏": 9063, "领": 9064, "▁妳": 9065, "节目": 9066, "”(": 9067, "公里": 9068, "▁historical": 9069, "毫无": 9070, "盘": 9071, "▁fees": 9072, "的领域": 9073, "急": 9074, "ten": 9075, "▁VIII": 9076, "▁Am": 9077, "▁Strip": 9078, "▁YOU": 9079, "促进和保护人权": 9080, "唯一": 9081, "摆脱": 9082, "无效": 9083, "uestion": 9084, "▁Corruption": 9085, "国别": 9086, "/2008/": 9087, "內": 9088, "▁Business": 9089, "他说": 9090, "箱": 9091, "辩护": 9092, "衣服": 9093, "后的": 9094, "的现象": 9095, "▁没": 9096, "交给": 9097, "国际机构": 9098, "▁elaboration": 9099, "的价值": 9100, "考": 9101, "▁lie": 9102, "▁tables": 9103, "▁pass": 9104, "完善": 9105, "▁perhaps": 9106, "偷": 9107, "工作中": 9108, "▁Dominican": 9109, "挺": 9110, "特性": 9111, "▁谢谢你": 9112, "很高": 9113, "肯": 9114, "毛额": 9115, "▁Consequently": 9116, "国内流离失所者": 9117, "联合国会员国": 9118, "营地": 9119, "ful": 9120, "这些机构": 9121, "▁quick": 9122, "pp": 9123, "▁revenue": 9124, "▁estimate": 9125, "▁fraud": 9126, "▁因": 9127, "▁beings": 9128, "▁intensify": 9129, "▁pages": 9130, "被拘留者": 9131, "2,": 9132, "雪": 9133, "▁relationships": 9134, "犯下": 9135, "非自治领土": 9136, "▁但你": 9137, "▁assume": 9138, "联合国秘书处": 9139, "▁discharge": 9140, "直至": 9141, "负有": 9142, "等领域": 9143, ",500": 9144, "▁dependent": 9145, "南方": 9146, "▁degrading": 9147, "思想": 9148, "▁Army": 9149, "▁第一": 9150, "▁touch": 9151, "全面的": 9152, "良好的": 9153, "理论": 9154, "同上": 9155, "众多": 9156, "▁expulsion": 9157, "▁所以我": 9158, "所产生的": 9159, "简单": 9160, "并应": 9161, "border": 9162, "行动者": 9163, "第一委员会": 9164, "共同努力": 9165, "在纽约": 9166, "▁法国": 9167, "給你": 9168, "▁intelligence": 9169, "留在": 9170, "▁abuses": 9171, "▁House": 9172, "施加": 9173, "价值观": 9174, "▁他在": 9175, "▁convene": 9176, "童工": 9177, "▁underlying": 9178, "款规定": 9179, "就必须": 9180, "的分析": 9181, "▁emphasizes": 9182, "原因是": 9183, "▁desertification": 9184, "主动": 9185, "各代表团": 9186, "之内": 9187, "/18": 9188, "中期": 9189, "▁Dialogue": 9190, "▁citizenship": 9191, "▁第三": 9192, "喜": 9193, "▁replaced": 9194, "▁可是": 9195, "学会": 9196, "”;": 9197, "出來": 9198, "项目的": 9199, "▁deemed": 9200, "观": 9201, "▁我會": 9202, "松": 9203, "ip": 9204, "▁reading": 9205, "▁necessity": 9206, "▁Bo": 9207, "发展权": 9208, "▁renewable": 9209, "▁Pension": 9210, "巴黎": 9211, "▁应当": 9212, "私": 9213, "自我": 9214, "▁suffer": 9215, "▁lay": 9216, "▁conducive": 9217, "的事实": 9218, "▁Conduct": 9219, "▁suggest": 9220, "▁competitive": 9221, "至今": 9222, "久": 9223, "以及关于": 9224, "的伙伴关系": 9225, "▁emphasize": 9226, "死亡率": 9227, "▁mandatory": 9228, "内部监督事务厅": 9229, "▁Ombudsman": 9230, "阁下": 9231, "人员和": 9232, "▁reiterate": 9233, "▁characteristics": 9234, "/19": 9235, "▁Voluntary": 9236, "尼亚": 9237, "忘了": 9238, "经济体": 9239, "苦": 9240, "除外": 9241, "怎麼": 9242, "▁contacts": 9243, "之间的联系": 9244, "好像": 9245, "观念": 9246, "▁t": 9247, "音乐": 9248, "si": 9249, "在大会": 9250, "续会": 9251, "全球性": 9252, "动态": 9253, "把他": 9254, "普遍定期审议": 9255, "统计数据": 9256, "联合国儿童基金会": 9257, "▁Does": 9258, "20%": 9259, "决定将": 9260, "来看": 9261, "az": 9262, "▁84.": 9263, "han": 9264, "生计": 9265, "牛": 9266, "▁tribunal": 9267, "称为": 9268, "▁exceed": 9269, "儿子": 9270, "维和行动": 9271, "毒品和犯罪问题办公室": 9272, "能够在": 9273, "案例": 9274, "▁Ho": 9275, "▁第五委员会": 9276, "▁Disabilities": 9277, "▁replies": 9278, "▁supervision": 9279, "▁Di": 9280, "优惠": 9281, "在全球": 9282, "▁Ch": 9283, "▁briefings": 9284, "▁澳大利亚": 9285, "有害": 9286, "/68/": 9287, "以使": 9288, "核准的": 9289, "▁Ben": 9290, "▁harmful": 9291, "▁asking": 9292, "现场": 9293, "▁委员会建议": 9294, "val": 9295, "授予": 9296, "IT": 9297, "连续": 9298, "▁Chemical": 9299, "十八": 9300, "更多地": 9301, "我们认为": 9302, "▁mothers": 9303, "fi": 9304, "分析和": 9305, "床": 9306, "under": 9307, "▁weak": 9308, "提供的资料": 9309, "▁Air": 9310, "▁thereof": 9311, "▁Statistical": 9312, "的后果": 9313, "Other": 9314, "住在": 9315, "▁forthcoming": 9316, "继承": 9317, "提请注意": 9318, "支柱": 9319, "▁career": 9320, "▁juvenile": 9321, "Aligned": 9322, "比率": 9323, "干旱": 9324, "帮我": 9325, "▁reductions": 9326, "▁(1999)": 9327, "包括对": 9328, "试": 9329, "▁bitch": 9330, "忽视": 9331, "碳": 9332, "就像": 9333, "▁Consultati": 9334, "赞比亚": 9335, "▁devices": 9336, "▁Participation": 9337, "▁moral": 9338, "的调查": 9339, "▁supplementary": 9340, "唱": 9341, "成本效益": 9342, "巴拉圭": 9343, "非正式协商": 9344, "aw": 9345, "地方政府": 9346, "Re": 9347, "人权教育": 9348, "TD": 9349, "▁Russia": 9350, "的专家": 9351, "蘭": 9352, "▁mining": 9353, "▁speaker": 9354, "▁Ar": 9355, "▁buildings": 9356, "▁freely": 9357, "0\\3": 9358, "▁Articles": 9359, "同时也": 9360, "列为": 9361, "▁generate": 9362, "在同一": 9363, "政府在": 9364, "在审议": 9365, "千年宣言": 9366, "▁听着": 9367, "▁Cuban": 9368, "▁Senior": 9369, "关于在": 9370, "将对": 9371, "▁特别委员会": 9372, "独立专家": 9373, "2(": 9374, "记得": 9375, "非洲发展新伙伴关系": 9376, "努": 9377, "课": 9378, "▁frequently": 9379, "区域和国际": 9380, "经社理事会": 9381, "ors": 9382, "▁stronger": 9383, "▁injury": 9384, "▁2002-2003": 9385, "▁Twenty": 9386, "▁imperative": 9387, "逐渐": 9388, "开展的活动": 9389, "找出": 9390, "▁interactive": 9391, "▁GDP": 9392, "欺诈": 9393, "▁拉": 9394, "zi": 9395, "▁loans": 9396, "故": 9397, "▁Disaster": 9398, "▁卡": 9399, "": 9400, "霍": 9401, "世纪议程": 9402, "有效执行": 9403, "和资源": 9404, "▁user": 9405, "▁FDI": 9406, "拉丁美洲和加勒比": 9407, "可行": 9408, "人力资源管理": 9409, "认证": 9410, "任用": 9411, "发动": 9412, "另": 9413, "免受": 9414, "▁aspect": 9415, "▁Namibia": 9416, "▁employers": 9417, "和使用": 9418, "▁inequality": 9419, "必": 9420, "▁Region": 9421, "▁attempts": 9422, "▁Se": 9423, "▁incentives": 9424, "▁subregion": 9425, "第三方": 9426, "▁auspices": 9427, "当中": 9428, "▁Lastly": 9429, "▁sort": 9430, "发展伙伴": 9431, "▁enshrined": 9432, "主办": 9433, "▁Should": 9434, "账": 9435, "速": 9436, "发生在": 9437, "▁Mozambique": 9438, "国际原子能机构": 9439, "病人": 9440, "小学": 9441, "混蛋": 9442, "请秘书处": 9443, "司法机构": 9444, "土著民族": 9445, "▁Pro": 9446, "▁像": 9447, "已成为": 9448, "被捕": 9449, "▁accelerate": 9450, "连接": 9451, "5,000": 9452, "的质量": 9453, "▁generated": 9454, "▁liberalization": 9455, "▁Very": 9456, "覺得": 9457, "▁bar": 9458, "殺": 9459, "并使": 9460, "▁arise": 9461, "恶": 9462, "▁rapidly": 9463, "▁Alliance": 9464, "穦": 9465, "▁meaningful": 9466, "可能的": 9467, "念": 9468, "投诉": 9469, "IN": 9470, "▁Access": 9471, "▁dog": 9472, "到底": 9473, "吉布提": 9474, "历": 9475, "在今后": 9476, "的一般": 9477, "残疾儿童": 9478, "开展活动": 9479, "相应": 9480, "▁everybody": 9481, "的因素": 9482, "朗": 9483, "中的作用": 9484, "的数额": 9485, "Dec": 9486, "人权和": 9487, "成立了": 9488, "▁willing": 9489, "与合作": 9490, "革命": 9491, "多哥": 9492, "小武器和轻武器": 9493, "讓": 9494, "ai": 9495, "特别注意": 9496, "▁Euro": 9497, "▁prove": 9498, "顾及": 9499, "所提供的": 9500, "▁Monterrey": 9501, "▁heritage": 9502, "▁preserve": 9503, "可是": 9504, "尽量": 9505, "执行部分第": 9506, "消费者": 9507, "▁compulsory": 9508, "▁subjects": 9509, "十五": 9510, "▁Relief": 9511, "函": 9512, "▁derived": 9513, "合理的": 9514, "内罗毕": 9515, "的名义": 9516, "▁2014,": 9517, "▁Ibid": 9518, "▁literacy": 9519, "▁marked": 9520, "第三十": 9521, "斐济": 9522, "▁School": 9523, "vo": 9524, "▁parallel": 9525, "kh": 9526, "第二部分": 9527, "青年人": 9528, "/67/": 9529, "▁Tajikistan": 9530, "最重要的": 9531, "▁miss": 9532, "▁通过议程": 9533, "▁eliminating": 9534, "▁green": 9535, "▁大家": 9536, "▁我不能": 9537, "暗": 9538, "群岛": 9539, "民警": 9540, "歧视性": 9541, "▁在本报告所述期间": 9542, "国家和": 9543, "排雷": 9544, "▁Officers": 9545, "▁advances": 9546, "并根据": 9547, "游戏": 9548, "▁entering": 9549, "▁desire": 9550, "的一个重要": 9551, "联合国的": 9552, "不用": 9553, "婴儿": 9554, "委会": 9555, "母": 9556, "首都": 9557, "他是": 9558, "多年": 9559, "▁你看": 9560, "▁weapon": 9561, "的补充": 9562, "有一些": 9563, "呼": 9564, "共享": 9565, "▁headed": 9566, "招": 9567, "本着": 9568, "杯": 9569, "▁depend": 9570, "冻结": 9571, "地方当局": 9572, "▁ceasefire": 9573, "名字": 9574, "足够的": 9575, "▁themes": 9576, "▁observation": 9577, "社会和经济": 9578, "起來": 9579, "ee": 9580, "▁collected": 9581, "▁Common": 9582, "谈谈": 9583, "”)": 9584, "星期": 9585, "缩小": 9586, "▁restricted": 9587, "提高认识": 9588, "depth": 9589, "▁1986": 9590, "/1999/": 9591, "▁innocent": 9592, "保安": 9593, "并强调": 9594, "政府的": 9595, "所有其他": 9596, "复原": 9597, "所面临的": 9598, "提供技术援助": 9599, "service": 9600, "▁Shit": 9601, "汇": 9602, "法律框架": 9603, "▁85.": 9604, "▁guided": 9605, "概算": 9606, "多米尼加共和国": 9607, "▁mobility": 9608, "▁ESCAP": 9609, "百分比": 9610, "▁shelter": 9611, "▁beneficiaries": 9612, "安装": 9613, "▁Su": 9614, "清除": 9615, "▁accompanied": 9616, "监察": 9617, "默": 9618, "▁Biological": 9619, "▁millions": 9620, "及其对": 9621, "标准化": 9622, "同时考虑到": 9623, "mer": 9624, "专门知识": 9625, "▁targeting": 9626, "▁gain": 9627, "普及": 9628, "hu": 9629, "环境规划署": 9630, "▁tangible": 9631, "路线图": 9632, "▁recall": 9633, "之处": 9634, "旅游业": 9635, "▁relates": 9636, "已被": 9637, "▁Basic": 9638, "妻子": 9639, "▁win": 9640, "▁我们要": 9641, "生殖健康": 9642, "ick": 9643, "对儿童": 9644, "表现出": 9645, "▁stupid": 9646, "▁pick": 9647, "的小": 9648, "PV": 9649, "que": 9650, "给安全理事会主席的信": 9651, "力求": 9652, "▁logistical": 9653, "这种做法": 9654, "▁lands": 9655, "▁SBI": 9656, "▁carbon": 9657, "▁carefully": 9658, "▁suitable": 9659, "▁伊拉克": 9660, "的准则": 9661, "tory": 9662, "才是": 9663, "技术转让": 9664, "▁cool": 9665, "管理人员": 9666, "▁大会第": 9667, "刑": 9668, "地址": 9669, "▁manufacture": 9670, "ice": 9671, "的案文": 9672, "受伤": 9673, "▁malaria": 9674, "的最": 9675, "拖": 9676, "6/": 9677, "▁conviction": 9678, "▁immigration": 9679, "还指出": 9680, "IP": 9681, "分子": 9682, "這麼": 9683, "▁Habitat": 9684, "监察员": 9685, "啥": 9686, "▁Watch": 9687, "西亚": 9688, "▁Final": 9689, "负责人": 9690, "▁heading": 9691, "▁Next": 9692, "后勤": 9693, "▁pregnancy": 9694, "▁complement": 9695, "的综合": 9696, "置于": 9697, "▁真是": 9698, "▁Sector": 9699, "覆盖": 9700, "▁twentieth": 9701, "瑟": 9702, "▁trials": 9703, "追踪": 9704, "敢": 9705, "和经济": 9706, "▁brief": 9707, "▁clarify": 9708, "的组成部分": 9709, "Women": 9710, "关税": 9711, "笔": 9712, "工作方法": 9713, "纪律": 9714, "发挥作用": 9715, "▁translation": 9716, "确定的": 9717, "▁Punishment": 9718, "ا": 9719, "▁Honduras": 9720, "▁Interior": 9721, "▁proof": 9722, "▁那就": 9723, "我们在": 9724, "逼": 9725, "SC": 9726, "US": 9727, "▁86.": 9728, "或其": 9729, "▁2010-2011": 9730, "让他们": 9731, "和服务": 9732, "▁Bahrain": 9733, "1967": 9734, "目标是": 9735, "露": 9736, "弧": 9737, "继续在": 9738, "的部分": 9739, "▁permitted": 9740, "照片": 9741, "政府机构": 9742, "▁mostly": 9743, "其在": 9744, "前景": 9745, "▁Contracting": 9746, "近期": 9747, "现代化": 9748, "泽": 9749, "▁Violations": 9750, "▁industries": 9751, "▁联": 9752, ":「": 9753, "▁citizen": 9754, "的积极": 9755, "不管": 9756, "债务人": 9757, "▁实际上": 9758, "▁addresses": 9759, "▁counselling": 9760, "4,": 9761, "弱": 9762, "▁London": 9763, "▁underlined": 9764, "▁presidency": 9765, "ial": 9766, "▁74": 9767, "▁operative": 9768, "▁macroeconomic": 9769, "各成员国": 9770, "年轻": 9771, "全系统": 9772, "该特派团": 9773, "Agency": 9774, "▁我们希望": 9775, "▁summits": 9776, "▁feeling": 9777, "和社区": 9778, "har": 9779, "》(《": 9780, "馬": 9781, "的收入": 9782, "▁USD": 9783, "▁IT": 9784, "lin": 9785, "善": 9786, "斗争": 9787, "的教育": 9788, "▁Na": 9789, "就业机会": 9790, "咨询服务": 9791, "▁Standards": 9792, "沟通": 9793, "还没": 9794, "▁models": 9795, "▁看看": 9796, "▁选举": 9797, "▁MDGs": 9798, "▁Regulation": 9799, "/14": 9800, "附加议定书": 9801, "审查会议": 9802, "Ma": 9803, "▁天": 9804, "▁Center": 9805, "提供给": 9806, "联检组": 9807, "居住在": 9808, "▁prospects": 9809, "▁我认为": 9810, "代表性": 9811, "为止": 9812, "的主题": 9813, "黑体": 9814, "▁organ": 9815, "势": 9816, "▁aged": 9817, "的目标是": 9818, "联合国大会": 9819, "划": 9820, "▁putting": 9821, "▁Independence": 9822, "或许": 9823, "参与者": 9824, "▁同上": 9825, "▁走": 9826, "汽车": 9827, "社会经济": 9828, "虫": 9829, ".1).": 9830, "了一系列": 9831, "▁Illicit": 9832, "▁eradicate": 9833, "在这儿": 9834, "▁persistent": 9835, "那個": 9836, "马达加斯加": 9837, "而不": 9838, "加勒比": 9839, "公约草案": 9840, "▁via": 9841, "使之": 9842, "▁Logistics": 9843, "农村地区": 9844, "的解释": 9845, "一半": 9846, "都必须": 9847, "定期报告": 9848, "面向": 9849, "▁主要": 9850, "亞": 9851, "分歧": 9852, "▁行预咨委会": 9853, "否认": 9854, "▁Survey": 9855, "▁adolescents": 9856, "简": 9857, "船舶": 9858, "生态": 9859, "▁Stockholm": 9860, "▁怎么": 9861, "扩展": 9862, "和行政": 9863, "想知道": 9864, "都不": 9865, "弱势群体": 9866, "协调中心": 9867, "越来越多的": 9868, "▁truly": 9869, "和组织": 9870, ")).": 9871, "▁_": 9872, "▁favourable": 9873, "▁box": 9874, "Name": 9875, "ess": 9876, "▁exposure": 9877, "情形": 9878, "net": 9879, "经济和社会发展": 9880, "带来的": 9881, "不应该": 9882, "\\4": 9883, "▁methodologies": 9884, "▁formation": 9885, "▁digital": 9886, "之时": 9887, "▁extra": 9888, "和平与": 9889, "替": 9890, "▁retain": 9891, "▁accurate": 9892, "}": 9893, "这儿": 9894, "▁开发署": 9895, "含": 9896, "反映出": 9897, "文职人员": 9898, "塔吉克斯坦": 9899, "坚决": 9900, "▁88.": 9901, "▁consequence": 9902, "质疑": 9903, "专员": 9904, "息": 9905, "▁somebody": 9906, "▁handle": 9907, "阿拉伯国家": 9908, "▁grow": 9909, "▁prisons": 9910, "排斥": 9911, "VI": 9912, "▁seats": 9913, "荒漠化": 9914, "家属": 9915, "▁UNIFEM": 9916, "上文": 9917, "▁因為": 9918, "做到": 9919, "▁Upon": 9920, "▁entrusted": 9921, "案情": 9922, "防范": 9923, "委托": 9924, "章程": 9925, "偏": 9926, "▁clarification": 9927, "增长率": 9928, "刚才": 9929, "各缔约方": 9930, "▁consult": 9931, "▁assumed": 9932, "加强其": 9933, "而非": 9934, "积极的": 9935, "武": 9936, "▁这次": 9937, "▁aren": 9938, "并要求": 9939, "/17": 9940, "在那": 9941, "▁Responsible": 9942, "境内流离失所者": 9943, "政府官员": 9944, "▁mobile": 9945, "你了": 9946, "▁国际社会": 9947, "▁dear": 9948, "薪金": 9949, "刑事司法": 9950, "初": 9951, ">": 9952, "你在": 9953, "津巴布韦": 9954, "第七条": 9955, "▁Outcome": 9956, "常规": 9957, "▁89.": 9958, "President": 9959, "▁concepts": 9960, "personnel": 9961, "陷入": 9962, "太太": 9963, "-3)": 9964, "▁reinforce": 9965, "武装团体": 9966, "预定": 9967, "▁division": 9968, "都没有": 9969, "去找": 9970, "▁從": 9971, "▁我得": 9972, "▁consolidate": 9973, "组合": 9974, "之一是": 9975, "你知道": 9976, "取得成功": 9977, "的审查": 9978, "相应的": 9979, "▁weight": 9980, "两种": 9981, "年来": 9982, "▁department": 9983, "的态度": 9984, "門": 9985, "/16": 9986, "▁length": 9987, "表示支持": 9988, "还包括": 9989, "自决": 9990, "报告和": 9991, "经历": 9992, "chi": 9993, "gen": 9994, "巡逻": 9995, "提供必要的": 9996, "tra": 9997, "角": 9998, "▁unlawful": 9999, "活动和": 10000, "帐户": 10001, "▁WFP": 10002, "麦": 10003, "租": 10004, "充分执行": 10005, "并支持": 10006, "县": 10007, "▁parliamentary": 10008, "土库曼斯坦": 10009, "咖啡": 10010, "在本": 10011, "▁法院": 10012, "所示": 10013, "▁cultures": 10014, "可持续发展委员会": 10015, "2002-2003": 10016, "栏": 10017, "▁$4": 10018, "3(": 10019, "加沙地带": 10020, "▁2013.": 10021, "回來": 10022, "非法贩运": 10023, "IS": 10024, "▁đ": 10025, "谋杀": 10026, "▁description": 10027, "▁2012-2013": 10028, "▁OECD": 10029, "撤出": 10030, "一步": 10031, "▁th": 10032, "▁refrain": 10033, "六个月": 10034, "为促进": 10035, "小武器": 10036, "的总": 10037, "▁facto": 10038, "▁我很": 10039, "▁credibility": 10040, "其后": 10041, "当前的": 10042, "▁prompt": 10043, "境内的": 10044, "▁happens": 10045, "有组织犯罪": 10046, "灵": 10047, "说明了": 10048, "▁Legislative": 10049, "轨道": 10050, "其工作": 10051, "习惯": 10052, "聚": 10053, "后面": 10054, "采取步骤": 10055, "传真": 10056, "SA": 10057, "▁competitiveness": 10058, "句": 10059, "▁非": 10060, "摩尔多瓦共和国": 10061, "▁Communication": 10062, "▁我还": 10063, "cutting": 10064, "▁lies": 10065, "▁offset": 10066, "▁remarks": 10067, "发展目标": 10068, "儿童和": 10069, "应以": 10070, "嘴": 10071, "▁Stresses": 10072, "世界各地": 10073, "更好": 10074, "这方面": 10075, "的工具": 10076, "▁Source": 10077, "妇": 10078, "申明": 10079, "00\\": 10080, "强有力的": 10081, "文字": 10082, "更广泛的": 10083, "国际法委员会": 10084, "▁eighth": 10085, "时至": 10086, "突然": 10087, "▁Taliban": 10088, "地面": 10089, "本决议": 10090, "采纳": 10091, "的范围内": 10092, "▁Conflict": 10093, "祝贺": 10094, "房子": 10095, "1987": 10096, "加强对": 10097, "ć": 10098, "对我": 10099, "报酬": 10100, "和分析": 10101, "▁External": 10102, "▁durable": 10103, "▁questionnaire": 10104, "要点": 10105, "顶": 10106, "▁1980": 10107, "▁white": 10108, "构成部分": 10109, "ix": 10110, "/8": 10111, "▁Djibouti": 10112, "保护儿童": 10113, "樣": 10114, "▁是吗": 10115, "反腐败": 10116, "缺": 10117, "的若干": 10118, "警卫": 10119, "公共行政": 10120, "▁pattern": 10121, "▁87.": 10122, "征求": 10123, "准许": 10124, "▁NEPAD": 10125, "降": 10126, "东部": 10127, "的重大": 10128, "▁Proposed": 10129, "▁dates": 10130, "生育": 10131, "等方面": 10132, "撤回": 10133, "▁appoint": 10134, "月底": 10135, "▁penalties": 10136, "實": 10137, "含有": 10138, "wi": 10139, "建立信任措施": 10140, "▁Lo": 10141, "▁transmission": 10142, "▁Yet": 10143, "国家报告": 10144, "讓我": 10145, "▁orientation": 10146, "▁unity": 10147, "他妈的": 10148, "对抗": 10149, "内陆发展中国家": 10150, "爆发": 10151, "▁安全理事会第": 10152, "Sha": 10153, "所需要的": 10154, "東西": 10155, "▁restructuring": 10156, "▁你不": 10157, "不利": 10158, "的自由": 10159, "ring": 10160, "指令": 10161, "辛": 10162, "好好": 10163, "▁regarded": 10164, "ier": 10165, "▁Kong": 10166, "▁Move": 10167, "▁$5": 10168, "▁sentenced": 10169, "第二届会议": 10170, "▁necessarily": 10171, "▁Hong": 10172, "▁accommodation": 10173, "角度": 10174, "帮你": 10175, "这么做": 10176, "训研所": 10177, "反恐怖主义": 10178, "▁73": 10179, "但它": 10180, "▁approve": 10181, "▁realized": 10182, "": 10183, "應該": 10184, "言论自由": 10185, "/58/": 10186, "▁缔约国应": 10187, "my": 10188, "怀": 10189, "▁nutrition": 10190, "▁是我": 10191, "1985": 10192, "会谈": 10193, "▁$3": 10194, "▁tr": 10195, "重点是": 10196, "▁(4)": 10197, "▁Ja": 10198, ",800": 10199, "通过其": 10200, "以及为": 10201, "▁exploration": 10202, "发表的": 10203, "▁Greek": 10204, "带来了": 10205, "▁enhancement": 10206, "和个人": 10207, "▁King": 10208, "▁provinces": 10209, "▁admissibility": 10210, "区域办事处": 10211, "▁还是": 10212, "▁Institutions": 10213, "提起": 10214, "ens": 10215, "案件中": 10216, "▁reserves": 10217, "▁suspected": 10218, "开幕": 10219, "▁creditors": 10220, "處": 10221, "和家庭": 10222, "mm": 10223, "▁appropriation": 10224, "▁solid": 10225, "▁concerted": 10226, "▁complementary": 10227, "▁diverse": 10228, "以提高": 10229, "名称": 10230, "回收": 10231, "jo": 10232, "承受": 10233, "委员会认为": 10234, "▁replacement": 10235, "來了": 10236, "由此": 10237, "让我们": 10238, "▁Hague": 10239, "▁port": 10240, "早期": 10241, "▁sectoral": 10242, "▁次": 10243, "实验室": 10244, "很重要": 10245, "抽": 10246, "48/": 10247, "▁(19": 10248, "中止": 10249, "▁decent": 10250, "▁obtaining": 10251, "▁participatory": 10252, "▁funny": 10253, "使用武力": 10254, "的报告中": 10255, "领袖": 10256, "▁Goal": 10257, "▁micro": 10258, "吉尔吉斯斯坦": 10259, "▁whereby": 10260, "▁亲爱的": 10261, "▁Prosecution": 10262, "▁insecurity": 10263, "人群": 10264, "人民的": 10265, "的最佳": 10266, "跨界": 10267, "餐": 10268, "右": 10269, "扬": 10270, "附加": 10271, "▁Case": 10272, "▁Ocean": 10273, "施政": 10274, "短缺": 10275, "▁Consensus": 10276, "可再生能源": 10277, "羅": 10278, "在促进": 10279, "▁Between": 10280, "▁register": 10281, "网址": 10282, "IDB": 10283, "犯罪行为": 10284, "制定的": 10285, "行径": 10286, "解放": 10287, "梦": 10288, "▁Time": 10289, "不限成员名额工作组": 10290, "我知道": 10291, "tel": 10292, "▁villages": 10293, "▁你怎么": 10294, "和其它": 10295, "▁attitudes": 10296, "▁closing": 10297, "▁exceptional": 10298, "经济和社会事务部": 10299, "▁他的": 10300, "里面": 10301, "说过": 10302, "这次会议": 10303, "▁Shut": 10304, "OL": 10305, "以为": 10306, "充分的": 10307, "补救办法": 10308, "▁businesses": 10309, "▁granting": 10310, "▁unions": 10311, "▁Establishment": 10312, "DC": 10313, "▁acquired": 10314, "▁Reform": 10315, "职类": 10316, "▁indicator": 10317, "参与了": 10318, "速度": 10319, "电脑": 10320, "表示感谢": 10321, "▁Make": 10322, "傻": 10323, "尼日尔": 10324, "▁让我们": 10325, "▁ocean": 10326, "▁Li": 10327, "的孩子": 10328, "一定要": 10329, "▁sufficiently": 10330, "▁disadvantaged": 10331, "茨": 10332, "联合国教育": 10333, "的政府": 10334, "▁mainstream": 10335, "发表了": 10336, "出现的": 10337, "▁systematically": 10338, "确保在": 10339, "有限的": 10340, "网上": 10341, "贩卖": 10342, "研究和": 10343, "继续进行": 10344, "此事": 10345, "罗姆人": 10346, "补": 10347, "和监督": 10348, "有很多": 10349, "秘书长特别代表": 10350, "▁excessive": 10351, "▁Branch": 10352, "▁capability": 10353, "1982": 10354, "⊿": 10355, "進": 10356, "▁Nice": 10357, "▁consistently": 10358, "3,": 10359, "▁surveillance": 10360, "▁Ko": 10361, "欠": 10362, "▁上述": 10363, "▁species": 10364, "达成协议": 10365, "习俗": 10366, "▁wealth": 10367, "▁acquire": 10368, "over": 10369, "防治": 10370, "你要": 10371, "▁Commonwealth": 10372, "▁不能": 10373, "▁Envoy": 10374, "pos": 10375, "相同的": 10376, "▁fault": 10377, "无论是": 10378, "非政府组织和": 10379, "加工": 10380, "(2": 10381, "tion": 10382, "寄": 10383, "▁proved": 10384, "▁Serious": 10385, "▁redress": 10386, "▁Sch": 10387, "地域": 10388, "▁correct": 10389, "提供资料": 10390, "纸": 10391, "▁Provision": 10392, "大楼": 10393, "/11": 10394, "战略框架": 10395, "▁salaries": 10396, "联科行动": 10397, "另有": 10398, "▁District": 10399, "委员会第": 10400, "幫": 10401, "▁Matters": 10402, "▁count": 10403, "灯": 10404, "機": 10405, "任何其他": 10406, "▁evident": 10407, "国家一级": 10408, "2/": 10409, "-4)": 10410, "▁merits": 10411, "▁(1);": 10412, "▁Fiji": 10413, "提到了": 10414, "▁Without": 10415, "▁duplication": 10416, "▁七": 10417, "六个": 10418, "▁Customs": 10419, "互相": 10420, "缴纳": 10421, "各方面": 10422, "▁progressive": 10423, "选出": 10424, "税收": 10425, "▁呃": 10426, "人事": 10427, "国际人权": 10428, "▁UNIFIL": 10429, "的服务": 10430, "行政和预算问题咨询委员会": 10431, "购置": 10432, "吹": 10433, "离婚": 10434, "產": 10435, "所有相关": 10436, "▁Mu": 10437, "所造成的": 10438, "▁ourselves": 10439, "附": 10440, "ise": 10441, "30%": 10442, "那是": 10443, "0}": 10444, "▁Major": 10445, "东盟": 10446, "▁arrived": 10447, "抗议": 10448, "8,": 10449, "▁Somali": 10450, "概述了": 10451, "腿": 10452, "青": 10453, "苏丹政府": 10454, "▁offering": 10455, "义": 10456, "房屋": 10457, "卫生部": 10458, "增至": 10459, "解决方案": 10460, "▁Related": 10461, "▁provincial": 10462, "1/": 10463, "▁commodities": 10464, "▁1988": 10465, "▁Ni": 10466, "杀伤人员地雷": 10467, "该法": 10468, "▁eastern": 10469, "▁vast": 10470, "最好的": 10471, "▁Bearing": 10472, "促进和保护": 10473, "国家和区域": 10474, "ぃ": 10475, "▁consists": 10476, "什么时候": 10477, "▁hosted": 10478, "进程中": 10479, "ep": 10480, "恨": 10481, "▁代理主席": 10482, "监测和评价": 10483, "▁des": 10484, "讲话": 10485, "▁removed": 10486, "发送": 10487, "一人": 10488, "导": 10489, "杀人": 10490, "7,": 10491, "▁observance": 10492, "▁给我": 10493, "签发": 10494, "海洋环境": 10495, "联合国国家工作队": 10496, "▁Five": 10497, "圈": 10498, "有待": 10499, "/1998/": 10500, "▁Kuwaiti": 10501, "科学和技术": 10502, "众": 10503, "ator": 10504, "开办": 10505, "▁ODA": 10506, "▁deprivation": 10507, "谋求": 10508, "结束时": 10509, "硬": 10510, "▁convicted": 10511, "捍卫": 10512, "咨询意见": 10513, "▁ecosystems": 10514, "常规武器": 10515, "▁90.": 10516, "▁coordinator": 10517, "会议和": 10518, "展示": 10519, "▁credible": 10520, "▁拜托": 10521, "的财政": 10522, "▁powerful": 10523, "red": 10524, "中间": 10525, "▁Situation": 10526, "▁clearance": 10527, "中美洲": 10528, "▁appointments": 10529, "既定": 10530, "从而使": 10531, "谈到": 10532, "不扩散核武器条约": 10533, "50/": 10534, "的日期": 10535, "正是": 10536, "在实现": 10537, "部落": 10538, "▁cell": 10539, ",400": 10540, "▁budgeting": 10541, "设立了一个": 10542, "面积": 10543, "▁plant": 10544, "高等教育": 10545, "article": 10546, "oo": 10547, "9,": 10548, "▁prosecutors": 10549, "勃": 10550, "An": 10551, "代表发言": 10552, "ding": 10553, "▁generations": 10554, "▁Paraguay": 10555, "的辩论": 10556, "文明": 10557, "议": 10558, "▁assurances": 10559, "评": 10560, "▁Call": 10561, "这份": 10562, "方案规划": 10563, "che": 10564, "第四委员会": 10565, "行为守则": 10566, "▁residents": 10567, "常驻代表": 10568, "▁Efforts": 10569, "▁catch": 10570, "▁telephone": 10571, "號": 10572, "足以": 10573, "的全部": 10574, "▁depends": 10575, "/2009/": 10576, "▁Got": 10577, "▁expectations": 10578, "▁involves": 10579, "摧毁": 10580, "遗产": 10581, "不结盟运动": 10582, "110": 10583, "▁再见": 10584, "黑山": 10585, "报告了": 10586, "▁perspectives": 10587, "▁比": 10588, "▁除非": 10589, "▁ye": 10590, "▁专家组": 10591, "的必要": 10592, "处境": 10593, "\".": 10594, "▁authorization": 10595, "▁di": 10596, "刑法典": 10597, "55/2": 10598, "做出了": 10599, "单元": 10600, "的話": 10601, "▁leader": 10602, "行动的": 10603, "▁Mine": 10604, "▁threatened": 10605, "以上的": 10606, "协同": 10607, "跨": 10608, "▁enforce": 10609, "特设工作组": 10610, "指挥": 10611, "破产": 10612, "识别": 10613, "正当": 10614, "骨": 10615, "▁1994,": 10616, "▁Togo": 10617, "▁shift": 10618, "▁emergencies": 10619, "摩纳哥": 10620, "▁sell": 10621, "按照第": 10622, "在这个": 10623, "不太": 10624, "的代表团": 10625, "发言人": 10626, "▁hair": 10627, "的数目": 10628, "左": 10629, "协商一致": 10630, "ker": 10631, "▁inhabitants": 10632, "▁mediation": 10633, "fscx": 10634, "该机构": 10635, "内部审计": 10636, "会晤": 10637, "▁Participants": 10638, "▁becomes": 10639, "世界会议": 10640, "向委员会": 10641, "▁hundred": 10642, "▁次级方案": 10643, "氯": 10644, "▁strictly": 10645, "▁一般": 10646, "国际金融机构": 10647, "它在": 10648, "▁巴西": 10649, "▁flight": 10650, "/13": 10651, "用作": 10652, "骚扰": 10653, "或是": 10654, "▁outline": 10655, "一般性": 10656, "外债": 10657, "了吧": 10658, ".1.": 10659, "的特别": 10660, "编号": 10661, "體": 10662, "ite": 10663, "問": 10664, "妇女和": 10665, "-7": 10666, "正规": 10667, "至第": 10668, "▁Ta": 10669, "解决冲突": 10670, "COM": 10671, "▁merely": 10672, "国家行动计划": 10673, "实施了": 10674, "抓住": 10675, "并注意到": 10676, "互": 10677, "社会保护": 10678, "▁Monetary": 10679, "指导原则": 10680, "法语发言": 10681, "▁debtor": 10682, "联合国系统各组织": 10683, "▁recruited": 10684, "▁prosecute": 10685, "少年": 10686, "▁ministers": 10687, "的缔约方": 10688, "主管当局": 10689, "说的": 10690, "▁开发计划署": 10691, "▁appeared": 10692, "▁uniform": 10693, "▁highlight": 10694, "清洁": 10695, "委员会的工作": 10696, "还必须": 10697, "▁client": 10698, "▁ninth": 10699, "140": 10700, "林业": 10701, "ill": 10702, "ren": 10703, "▁针对": 10704, "▁workload": 10705, "助理秘书长": 10706, "的支持下": 10707, "▁indicating": 10708, "▁Recognizes": 10709, "▁normally": 10710, "▁妈妈": 10711, "的进展情况": 10712, "▁easily": 10713, "ara": 10714, "马拉维": 10715, "▁我知道你": 10716, "經": 10717, "达成的": 10718, "▁墨西哥": 10719, "发展的": 10720, "▁analyse": 10721, "▁我说": 10722, "岁的": 10723, "ability": 10724, "雨": 10725, "席位": 10726, "接受了": 10727, "以实现": 10728, "▁delegates": 10729, "▁initiate": 10730, "秘书长报告": 10731, "130": 10732, "▁willingness": 10733, "▁德国": 10734, "▁Ensure": 10735, "▁另一方面": 10736, "▁impose": 10737, "▁integrating": 10738, "应将": 10739, "将与": 10740, "欧安组织": 10741, "▁square": 10742, "市场准入": 10743, "的反应": 10744, "高效": 10745, "▁unto": 10746, "▁statute": 10747, "维修": 10748, "醒": 10749, "这场": 10750, "南亚": 10751, "▁俄罗斯联邦": 10752, "▁Judge": 10753, "经济活动": 10754, "报表": 10755, "▁creditor": 10756, "▁submitting": 10757, "驻地协调员": 10758, "▁excluded": 10759, "撒": 10760, "以确定": 10761, "村庄": 10762, "戰": 10763, "▁Holy": 10764, "电子邮件": 10765, "▁hospitals": 10766, "▁Electoral": 10767, "▁我现在": 10768, "▁Jack": 10769, "签证": 10770, "休息": 10771, "几个月": 10772, "提前": 10773, "所谓的": 10774, "ff": 10775, "▁candidate": 10776, "伊斯兰会议组织": 10777, "▁greenhouse": 10778, "主席先生": 10779, "毛里塔尼亚": 10780, "检察官办公室": 10781, "▁twice": 10782, "年度会议": 10783, "离职": 10784, "第一部分": 10785, "ure": 10786, "在其第": 10787, "▁urgently": 10788, "▁Ki": 10789, "更改": 10790, "180": 10791, "第一届会议": 10792, "▁perfect": 10793, "协调委员会": 10794, "完整": 10795, "ru": 10796, "▁calendar": 10797, "▁不知道": 10798, "加大": 10799, "恐怖主义行为": 10800, "料": 10801, "▁refused": 10802, "We": 10803, "▁accident": 10804, "主席团成员": 10805, "定罪": 10806, "情况的": 10807, "ER": 10808, "▁gratitude": 10809, "▁damn": 10810, "5%": 10811, "▁sales": 10812, "有所增加": 10813, "Pacific": 10814, "▁spending": 10815, "▁Documentation": 10816, "▁programs": 10817, "中小企业": 10818, "暴力侵害妇女行为": 10819, "言论": 10820, ".21": 10821, "夏": 10822, "想法": 10823, "犯有": 10824, "颁发": 10825, "▁在同次会议上": 10826, "新伙伴关系": 10827, "满意": 10828, "▁我国": 10829, "▁Everything": 10830, "▁sponsored": 10831, "审议大会": 10832, "105": 10833, "▁verbale": 10834, "▁人权委员会": 10835, "节省": 10836, "you": 10837, "▁universities": 10838, "▁viable": 10839, "公共卫生": 10840, "▁Narcotic": 10841, "委员会和": 10842, "提供便利": 10843, "作物": 10844, "惠": 10845, "▁speed": 10846, "是由于": 10847, "-16": 10848, "▁Volunteers": 10849, "碎": 10850, "2010-2011": 10851, "的特殊": 10852, "的运作": 10853, "着重指出": 10854, "▁RIGHTS": 10855, "▁urgency": 10856, "友": 10857, "▁Forests": 10858, "▁scared": 10859, "▁significance": 10860, "见过": 10861, "给他": 10862, "▁注": 10863, "阿曼": 10864, "▁firms": 10865, "▁92.": 10866, "-8": 10867, "人口贩运": 10868, "▁hopes": 10869, "惩处": 10870, "故意": 10871, "▁adults": 10872, "▁closure": 10873, "▁Web": 10874, "舞": 10875, "▁Johannesburg": 10876, "动力": 10877, "▁connected": 10878, "▁maternity": 10879, "▁Property": 10880, "资源的": 10881, "补助金": 10882, "▁pain": 10883, "工作场所": 10884, "400": 10885, "XV": 10886, "▁contracting": 10887, "▁x": 10888, "糟": 10889, "▁music": 10890, "▁审计委员会": 10891, "小孩": 10892, "IC": 10893, "▁presentations": 10894, "角色": 10895, "▁Area": 10896, "该部": 10897, "动机": 10898, "翻": 10899, "Islamic": 10900, "▁establishes": 10901, "它将": 10902, "广": 10903, "受益": 10904, "每周": 10905, "▁Lao": 10906, "所得": 10907, "非正式磋商": 10908, "▁servicing": 10909, "第三届会议": 10910, "批评": 10911, "术语": 10912, "ron": 10913, "第三委员会": 10914, "▁guilty": 10915, "仍有": 10916, "▁Syria": 10917, "▁马": 10918, "尤": 10919, "联合国志愿人员": 10920, "ي": 10921, "迫使": 10922, "fscy": 10923, "▁union": 10924, "▁corporations": 10925, "蒙特利尔议定书": 10926, "极其": 10927, "组建": 10928, "的确": 10929, "已于": 10930, "那边": 10931, "▁termination": 10932, "▁huge": 10933, "极端": 10934, "卡尔": 10935, "地中海": 10936, "▁eye": 10937, "事态发展": 10938, "是不": 10939, "寫": 10940, "慢": 10941, "▁Order": 10942, "▁intends": 10943, "一架": 10944, "提供一个": 10945, "▁drought": 10946, "▁dollar": 10947, "達": 10948, "▁anyway": 10949, "儿童保护": 10950, "和国际社会": 10951, "▁Madagascar": 10952, "土著人": 10953, "的時候": 10954, "这些努力": 10955, "▁gained": 10956, "仔细": 10957, "打开": 10958, "味": 10959, "▁focuses": 10960, "本来": 10961, "▁因为我": 10962, "种植": 10963, "▁Contributions": 10964, "一再": 10965, "▁window": 10966, "▁rising": 10967, "-19": 10968, "▁prevented": 10969, "残": 10970, "▁以下": 10971, "管理系统": 10972, "可能需要": 10973, "营养不良": 10974, "被拘留": 10975, "▁FOR": 10976, "出了": 10977, "和区域": 10978, "可靠的": 10979, "▁我希望": 10980, "▁Stay": 10981, "所采取的": 10982, "的决定草案": 10983, "▁assure": 10984, "国际和平与安全": 10985, "-0": 10986, "外地办事处": 10987, "▁revealed": 10988, "刻": 10989, "Pro": 10990, "前面": 10991, "UNDP": 10992, "均应": 10993, "▁ratio": 10994, "好处": 10995, "获得了": 10996, "的评估": 10997, "": 10998, "分列的": 10999, "▁immunity": 11000, "▁lived": 11001, "呆": 11002, "一支": 11003, "使我们": 11004, "保护人权": 11005, "经济及社会理事会第": 11006, "▁houses": 11007, "充满": 11008, "我们将": 11009, "提升": 11010, "萬": 11011, "wan": 11012, "▁subsidies": 11013, "▁consisting": 11014, "▁dynamic": 11015, "▁commend": 11016, "第四次": 11017, "参": 11018, "▁healthy": 11019, "▁人权理事会": 11020, "▁21,": 11021, "其对": 11022, "▁Niger": 11023, "▁Suppression": 11024, "▁即使": 11025, "各部门": 11026, "继续审议": 11027, "▁Golan": 11028, "思考": 11029, "▁speech": 11030, "制订了": 11031, "届特别会议": 11032, "中非": 11033, "政府间机构": 11034, "重要的是": 11035, "▁fired": 11036, "je": 11037, "年实质性会议": 11038, "财富": 11039, "鸡": 11040, "西非经共体": 11041, "lecommunications": 11042, "预期成绩": 11043, "左右": 11044, "▁Workshop": 11045, "▁advisers": 11046, "▁marginalized": 11047, "和政策": 11048, "arts": 11049, "怎么了": 11050, "发展问题": 11051, "环境和": 11052, "在国际": 11053, "▁y": 11054, "▁Christ": 11055, "▁worse": 11056, "运送": 11057, "▁carrier": 11058, "签字": 11059, "封": 11060, "小子": 11061, "第六": 11062, "▁combination": 11063, "▁Desertification": 11064, "▁servants": 11065, "▁dream": 11066, "▁excellent": 11067, "": 11068, "cu": 11069, "没有得到": 11070, "▁91.": 11071, "不超过": 11072, "▁regrets": 11073, "▁tackle": 11074, "和活动": 11075, "▁耶": 11076, "▁$7": 11077, "▁occasions": 11078, "的评论": 11079, "▁output": 11080, "详情": 11081, "▁Light": 11082, "▁administered": 11083, "場": 11084, "▁Workers": 11085, "New": 11086, "各自的": 11087, "受影响": 11088, "多样性": 11089, "▁absolute": 11090, "▁Effective": 11091, "▁restore": 11092, "的信": 11093, "故事": 11094, "是否有": 11095, "iya": 11096, "也应": 11097, "甚": 11098, "继续与": 11099, "订": 11100, "补助": 11101, "▁Malawi": 11102, "执行任务": 11103, "<": 11104, "▁chosen": 11105, "▁disappearance": 11106, "▁restoration": 11107, "能力和": 11108, "▁welcoming": 11109, "水资源": 11110, "▁finalized": 11111, "可持续性": 11112, "▁falling": 11113, "让他": 11114, "枚": 11115, "的裁决": 11116, "背景下": 11117, "▁老": 11118, "塔利班": 11119, "AR": 11120, "沉": 11121, "▁shoot": 11122, "▁showing": 11123, "▁93.": 11124, "堡": 11125, "▁deadline": 11126, "的军事": 11127, "▁spend": 11128, "时候": 11129, "mit": 11130, "宗": 11131, "AS": 11132, "month": 11133, "各地": 11134, "▁certification": 11135, "▁enrolment": 11136, "在委员会": 11137, "house": 11138, "▁Diversity": 11139, "拯救": 11140, "指导方针": 11141, "▁disclosure": 11142, "▁executions": 11143, "电子商务": 11144, "▁enabled": 11145, "退出": 11146, "▁impartial": 11147, "风险管理": 11148, "影": 11149, "将通过": 11150, "▁dinner": 11151, "▁prevalence": 11152, "和培训": 11153, "骗": 11154, "▁mitigate": 11155, "▁frame": 11156, "香港": 11157, "有关各方": 11158, "▁synergies": 11159, "▁94.": 11160, "的保留": 11161, "▁opinions": 11162, "空中": 11163, "其他职等": 11164, "堂": 11165, "▁Turn": 11166, "▁explicitly": 11167, "▁momentum": 11168, "标题": 11169, "重叠": 11170, "▁features": 11171, "▁totally": 11172, "将使": 11173, "▁monitored": 11174, "该条约": 11175, "军事人员": 11176, "你们的": 11177, "提倡": 11178, "粉": 11179, "-23": 11180, "ell": 11181, "▁paying": 11182, "▁expressing": 11183, "ane": 11184, "▁treat": 11185, "采": 11186, "下一个": 11187, "区域中心": 11188, "炸弹": 11189, "▁elsewhere": 11190, "▁minor": 11191, "過來": 11192, "ile": 11193, "在内": 11194, "▁registry": 11195, "根除": 11196, "反恐怖主义委员会": 11197, "康": 11198, "认捐": 11199, "刺激": 11200, "香": 11201, "▁worst": 11202, "田": 11203, "免遭": 11204, "展": 11205, "▁Canadian": 11206, "本地": 11207, "AT": 11208, "一件": 11209, "我們的": 11210, "无核武器区": 11211, "的那些": 11212, "▁Culture": 11213, "友好": 11214, "▁piece": 11215, "▁hostilities": 11216, "可持续发展问题世界首脑会议": 11217, "庆祝": 11218, "▁promptly": 11219, "劳动力市场": 11220, "面临着": 11221, ",300": 11222, "▁delayed": 11223, "▁congratulate": 11224, "▁吁请": 11225, "暴力和": 11226, "是誰": 11227, "▁About": 11228, "的主流": 11229, "2000-2001": 11230, "改造": 11231, "下次": 11232, "可用": 11233, "▁shut": 11234, "CMP": 11235, "的能力建设": 11236, "nuclear": 11237, "0,": 11238, "bar": 11239, "签署的": 11240, "▁pose": 11241, "▁哇": 11242, "辐射": 11243, "滚": 11244, "振兴": 11245, "不对": 11246, "重组": 11247, "跟他": 11248, "▁sentences": 11249, "会议期间": 11250, "▁Four": 11251, "▁随后": 11252, "主流": 11253, "▁监督厅": 11254, "和政治": 11255, "▁handling": 11256, "向大会": 11257, "圭亚那": 11258, "109": 11259, "▁IPSAS": 11260, "▁Men": 11261, "关切地注意到": 11262, "觉": 11263, "▁referendum": 11264, "公正和": 11265, "▁encountered": 11266, "然而": 11267, "一百": 11268, "ê": 11269, "▁negotiated": 11270, "▁decreased": 11271, "分布": 11272, "的捐款": 11273, "的协定": 11274, "▁afford": 11275, "▁seeing": 11276, "类型的": 11277, "▁comparative": 11278, "主动行动": 11279, "两年期方案预算": 11280, "人为": 11281, "垃圾": 11282, "分散": 11283, "区域内": 11284, "科学及文化组织": 11285, "▁chaired": 11286, "▁amend": 11287, "▁reimbursement": 11288, "发展战略": 11289, "巴勒斯坦权力机构": 11290, "▁69": 11291, "▁ordered": 11292, "Ban": 11293, "mi": 11294, "▁图": 11295, "利亚": 11296, "▁preparedness": 11297, "教训": 11298, "数据收集": 11299, "的联合": 11300, "▁Last": 11301, "上次": 11302, "員": 11303, "ging": 11304, "▁constant": 11305, "的关切": 11306, "▁Analysis": 11307, "▁electricity": 11308, "▁firearms": 11309, "▁submits": 11310, "▁substantially": 11311, "日常": 11312, "拟议预算": 11313, "▁destroy": 11314, "转变": 11315, "▁contractors": 11316, "▁预计": 11317, "产业": 11318, "最为": 11319, "号法律": 11320, "den": 11321, "应继续": 11322, "▁predictable": 11323, "/20": 11324, "问题是": 11325, "提供了一个": 11326, "▁retained": 11327, "的申请": 11328, "亮": 11329, "行为体": 11330, "ICEF": 11331, "储备": 11332, "在过去": 11333, "▁Ka": 11334, "▁只": 11335, "糟糕": 11336, "免疫": 11337, "稿": 11338, "▁branch": 11339, "入侵": 11340, "女生": 11341, "▁glad": 11342, "了我": 11343, "▁在此": 11344, "有许多": 11345, "▁无": 11346, "在该国": 11347, "定为": 11348, "▁whereas": 11349, "保护平民": 11350, "和平协定": 11351, "军火": 11352, "国民议会": 11353, "的各": 11354, "▁exchanges": 11355, "协调一致": 11356, "在这些": 11357, "▁compilation": 11358, "uz": 11359, "墙": 11360, "▁spoke": 11361, "sa": 11362, "司法和": 11363, "▁firmly": 11364, "EM": 11365, "遇": 11366, "▁assembly": 11367, "国外": 11368, "行政部门": 11369, "sk": 11370, "滑": 11371, "▁files": 11372, "与会": 11373, "发展援助": 11374, "三名": 11375, "▁Conferences": 11376, "的和平": 11377, "对他": 11378, "继续支持": 11379, "▁university": 11380, "和传播": 11381, "并将其": 11382, "致使": 11383, "铭记": 11384, "唯一的": 11385, "▁te": 11386, "承运人": 11387, "6,": 11388, "采矿": 11389, "mon": 11390, "▁Committed": 11391, "▁Barbados": 11392, "不包括": 11393, "▁Medical": 11394, "的两个": 11395, "功": 11396, "住所": 11397, "消": 11398, "▁drafted": 11399, "▁elderly": 11400, "▁transformation": 11401, "暴力侵害": 11402, "哪里": 11403, "托克劳": 11404, ".22": 11405, "▁Civilian": 11406, "▁commentary": 11407, "ID": 11408, "▁decolonization": 11409, "两级": 11410, "隔离": 11411, "采用了": 11412, "多名": 11413, "大陆": 11414, "排雷行动": 11415, "应为": 11416, "▁limitation": 11417, "cha": 11418, "年起": 11419, "发展合作": 11420, "妇女署": 11421, ".26": 11422, "的资产": 11423, "▁diamonds": 11424, "▁books": 11425, "达尔富尔混合行动": 11426, ".1)。": 11427, "sp": 11428, "和民间社会": 11429, "设有": 11430, "想象": 11431, "▁calm": 11432, "手续": 11433, "并以": 11434, "相反": 11435, "▁endeavour": 11436, "自杀": 11437, "▁Opening": 11438, "▁benefited": 11439, "不丹": 11440, "谢谢": 11441, "赔偿责任": 11442, "▁本组织": 11443, "▁inflation": 11444, "▁interesting": 11445, "工作和": 11446, "博茨瓦纳": 11447, "所提出的": 11448, "余": 11449, "延迟": 11450, ",600": 11451, "▁Vi": 11452, "▁當然": 11453, "第三国": 11454, "▁prohibit": 11455, "▁當": 11456, "活力": 11457, "▁跟": 11458, "继": 11459, "▁$8": 11460, "谋": 11461, "工作文件": 11462, "▁signs": 11463, "融合": 11464, "所要求的": 11465, "强迫失踪": 11466, "侵犯人权行为": 11467, "都要": 11468, "▁red": 11469, "▁chief": 11470, "▁seemed": 11471, "下面": 11472, "联合国维持和平行动": 11473, "的关注": 11474, "的想法": 11475, "那种": 11476, "▁happening": 11477, "特设": 11478, "▁prevailing": 11479, "本次": 11480, "反映在": 11481, "▁elaborate": 11482, "非殖民化": 11483, "▁Body": 11484, "▁assignment": 11485, "海外": 11486, "多年来": 11487, "常设委员会": 11488, "▁slavery": 11489, "最后文件": 11490, "通过一项": 11491, "▁comparison": 11492, "war": 11493, "▁古巴": 11494, "分庭": 11495, "▁1993,": 11496, "的年度报告": 11497, "强调必须": 11498, "承": 11499, "▁readiness": 11500, "▁David": 11501, "各专门机构": 11502, "有利": 11503, "▁打": 11504, "▁wake": 11505, "(2000": 11506, "的判决": 11507, "▁possibilities": 11508, "得出": 11509, "提出的问题": 11510, "ide": 11511, "发出的": 11512, "建立的": 11513, "▁lady": 11514, "▁minimize": 11515, "特派团的": 11516, "网站上": 11517, "▁luck": 11518, "信息交流": 11519, "阿拉伯国家联盟": 11520, "▁whenever": 11521, "tro": 11522, "总共": 11523, "▁fit": 11524, "疑": 11525, "吓": 11526, "困": 11527, "粮食计划署": 11528, "let": 11529, "超出": 11530, "归还": 11531, "▁subsistence": 11532, "全球经济": 11533, "▁updating": 11534, "约有": 11535, "(1);": 11536, "▁referring": 11537, "▁Was": 11538, "▁manual": 11539, "电力": 11540, "职业培训": 11541, "▁outset": 11542, "双重": 11543, "联合国人权事务高级专员": 11544, "▁motion": 11545, "▁spare": 11546, "East": 11547, "▁你就": 11548, "烟": 11549, "社会服务": 11550, "▁我没": 11551, "加蓬": 11552, "应包括": 11553, "经验教训": 11554, "▁(2003)": 11555, "▁pornography": 11556, "▁人口基金": 11557, "▁remuneration": 11558, "赤贫": 11559, "▁此": 11560, "仇恨": 11561, "需要在": 11562, "▁Per": 11563, "医学": 11564, "以防止": 11565, "▁suppliers": 11566, "▁秘书长的说明": 11567, "▁stipulated": 11568, "灵活性": 11569, "▁thorough": 11570, "搬": 11571, "撤离": 11572, "effective": 11573, "井": 11574, "必须确保": 11575, "招聘": 11576, "事宜": 11577, "▁依照": 11578, "▁$2": 11579, "▁欧洲": 11580, "▁adherence": 11581, "并呼吁": 11582, "ye": 11583, "▁Japanese": 11584, "西岸": 11585, "▁vessels": 11586, "▁strike": 11587, "应该是": 11588, "▁hey": 11589, "▁cease": 11590, "沿海": 11591, "岛屿": 11592, "载列": 11593, "今后的": 11594, "核准了": 11595, "移徙工人": 11596, "闻": 11597, "UR": 11598, "司法系统": 11599, "開始": 11600, "▁evening": 11601, "二十": 11602, "碰": 11603, "告訴我": 11604, "确是": 11605, "▁Post": 11606, "安全理事会关于": 11607, "迟": 11608, "▁Te": 11609, "▁suspended": 11610, "▁inquiry": 11611, "▁ageing": 11612, "▁evil": 11613, "复员": 11614, "薪酬": 11615, "自由和": 11616, "添加": 11617, "▁formally": 11618, "意图": 11619, "▁我已经": 11620, "开展的工作": 11621, "▁Reporting": 11622, "找到了": 11623, "税务": 11624, "▁1,000": 11625, "吸收": 11626, "示": 11627, "过度": 11628, "聲": 11629, "▁chain": 11630, "战略和": 11631, "/21": 11632, "▁bis": 11633, "▁manifestations": 11634, "中学": 11635, "▁possibly": 11636, "印刷": 11637, "iz": 11638, "的非正式协商": 11639, "欲": 11640, "指明": 11641, "国家间": 11642, "▁engaging": 11643, "的各个": 11644, "ver": 11645, "▁Master": 11646, "▁adult": 11647, "间的": 11648, "日生效": 11649, "棒": 11650, "预防冲突": 11651, "引发": 11652, "▁suggestion": 11653, "杀了": 11654, "卻": 11655, "▁foundations": 11656, "一周": 11657, "叫我": 11658, "▁feet": 11659, "▁fostering": 11660, "碞": 11661, "1.2": 11662, "的学生": 11663, "比赛": 11664, "Chairman": 11665, "养护": 11666, "▁Port": 11667, "▁97.": 11668, "因为他们": 11669, "土壤": 11670, "我现在请": 11671, "▁巴": 11672, "望": 11673, "▁complexity": 11674, "▁Turkmenistan": 11675, "不限成员名额": 11676, "▁CRC": 11677, "妇女参与": 11678, "该文件": 11679, "特别关注": 11680, "金属": 11681, "▁severely": 11682, "▁logistics": 11683, "80%": 11684, "附录": 11685, "冲突的": 11686, "酸": 11687, "▁Conclusions": 11688, "会期": 11689, "▁临时议程项目": 11690, "良好做法": 11691, "朝鲜": 11692, "▁Studies": 11693, "我谨": 11694, "su": 11695, "▁accounted": 11696, "▁survival": 11697, "前进": 11698, "并指出": 11699, "堕胎": 11700, "构成了": 11701, "童": 11702, "成人": 11703, "百万": 11704, "执行工作": 11705, "▁Um": 11706, "而且也": 11707, "贸易和": 11708, "▁legitimacy": 11709, "马上": 11710, "在这一": 11711, "打电话": 11712, "稳定和": 11713, "人权维护者": 11714, "尊重人权": 11715, "所有权": 11716, "▁consumer": 11717, "成了": 11718, "发展筹资": 11719, "内政部": 11720, "▁Registrar": 11721, "▁未": 11722, "▁fissile": 11723, "160": 11724, "好吧": 11725, "▁consistency": 11726, "▁formulating": 11727, "▁Ban": 11728, "领土完整": 11729, "剧": 11730, "有资格": 11731, "▁Production": 11732, "▁八": 11733, "生物多样性公约": 11734, "▁Round": 11735, "▁proud": 11736, "▁causing": 11737, "的增长": 11738, "▁Express": 11739, "9/": 11740, "联合国大学": 11741, "一份报告": 11742, "▁Promoting": 11743, "国际援助": 11744, "奈": 11745, "▁pursuit": 11746, "食物权": 11747, "▁potentially": 11748, "并建议": 11749, "员工": 11750, "▁pace": 11751, "庭": 11752, "审查和": 11753, "▁clients": 11754, "▁98.": 11755, "▁Never": 11756, "▁Home": 11757, "▁Tribunals": 11758, "分担": 11759, "ash": 11760, "": 11761, "贩卖人口": 11762, "合作社": 11763, "察": 11764, "提高对": 11765, "号决议所设委员会": 11766, "40%": 11767, "▁card": 11768, "不足以": 11769, "人口的": 11770, "▁Wow": 11771, "区域的": 11772, "独": 11773, "▁Operational": 11774, "混合": 11775, "名册": 11776, "▁Washington": 11777, "▁incidence": 11778, "管理的": 11779, "人人": 11780, "处决": 11781, "▁Congolese": 11782, "模型": 11783, "高级官员": 11784, "▁UNAMID": 11785, "▁gold": 11786, "年间": 11787, "父": 11788, "关押": 11789, "ero": 11790, "Saharan": 11791, "▁Monaco": 11792, "可行的": 11793, "▁$9": 11794, "三项": 11795, "▁fulfilling": 11796, "社会和": 11797, "程序和": 11798, "▁Sexual": 11799, "▁pledges": 11800, "公司的": 11801, "猜": 11802, "sensitive": 11803, "联利特派团": 11804, "忘记": 11805, "▁Dis": 11806, "▁Bangkok": 11807, "人权事务委员会": 11808, "日举行的第": 11809, "▁affordable": 11810, "危及": 11811, "▁你觉得": 11812, "▁我去": 11813, "更有效地": 11814, "▁Pa": 11815, "审讯": 11816, "领土上": 11817, "national": 11818, "国家警察": 11819, "尝试": 11820, "顺": 11821, "可以通过": 11822, "届常会": 11823, "第二条": 11824, "▁pursuing": 11825, "安全问题": 11826, "警察局": 11827, "▁withdraw": 11828, "成功的": 11829, "有用": 11830, "▁repeated": 11831, "并请秘书长": 11832, "削弱": 11833, "▁assumption": 11834, "▁你不能": 11835, "多项": 11836, "▁manufacturing": 11837, "▁Freedom": 11838, "(2002": 11839, "▁justify": 11840, "▁yesterday": 11841, "标准和": 11842, "追究": 11843, "": 11844, "亚洲及太平洋": 11845, "一段": 11846, "▁justified": 11847, "▁我们在": 11848, "制约": 11849, "▁95.": 11850, "▁Trial": 11851, "▁massive": 11852, "分项目": 11853, "一致认为": 11854, "日举行的": 11855, "种类": 11856, "ali": 11857, "的框架": 11858, "▁thousand": 11859, "": 11860, "▁www": 11861, "kin": 11862, "▁Iranian": 11863, "冒": 11864, "设备和": 11865, "▁阿根廷": 11866, "帐": 11867, "所有人权": 11868, "之际": 11869, "▁certificate": 11870, "▁disaggregated": 11871, "特遣队": 11872, "国家立法": 11873, "▁permits": 11874, "应根据": 11875, "▁96.": 11876, "辆": 11877, "▁99.": 11878, "▁Mauritania": 11879, "拿到": 11880, "▁ultimately": 11881, "▁每": 11882, "▁tons": 11883, "IR": 11884, "和可持续发展": 11885, "去吧": 11886, "1:00": 11887, "联合国系统内": 11888, "的进一步": 11889, "就其": 11890, "销": 11891, "▁Multilateral": 11892, "▁ecosystem": 11893, "▁Cape": 11894, "和设备": 11895, "▁走吧": 11896, "pro": 11897, "▁phrase": 11898, "▁safeguard": 11899, "▁channels": 11900, "周围": 11901, "▁emission": 11902, "▁employer": 11903, "ich": 11904, "预防性": 11905, "妇女地位委员会": 11906, "▁委员会对": 11907, "马尔代夫": 11908, "▁waters": 11909, "▁image": 11910, "▁existed": 11911, "▁是你": 11912, "ug": 11913, "▁contemporary": 11914, "明确规定": 11915, "资": 11916, "▁Tokelau": 11917, "的重点": 11918, "5,": 11919, "▁exposed": 11920, ",\"": 11921, "▁1987": 11922, "培训课程": 11923, "构想": 11924, "▁Kyrgyzstan": 11925, "的名字": 11926, "到达": 11927, "季度": 11928, "▁Background": 11929, "研究中心": 11930, "▁suggests": 11931, "领空": 11932, "du": 11933, "▁regret": 11934, "较低": 11935, "▁Sales": 11936, "弥补": 11937, "也不能": 11938, "▁Aid": 11939, "▁Free": 11940, "▁Racism": 11941, "▁行": 11942, "▁Date": 11943, "充分利用": 11944, "和美国": 11945, "▁redeployment": 11946, "▁自从": 11947, "日之前": 11948, "▁Personal": 11949, "巴巴多斯": 11950, "▁Genocide": 11951, "▁Organisation": 11952, "裝": 11953, "▁IMF": 11954, "▁拿": 11955, "被认为是": 11956, "106": 11957, "▁normative": 11958, "测量": 11959, "它是": 11960, "law": 11961, "的途径": 11962, "上了": 11963, "检测": 11964, "基本上": 11965, "▁suspension": 11966, "时限": 11967, "租赁": 11968, "扔": 11969, "▁过去": 11970, "FF": 11971, "act": 11972, "的增加": 11973, "人权状况": 11974, "概要": 11975, "今": 11976, "十六": 11977, "增多": 11978, "比如": 11979, "案件的": 11980, "3/": 11981, "str": 11982, "为此目的": 11983, "重要性": 11984, "接纳": 11985, "yn": 11986, "计划生育": 11987, "终": 11988, "▁Register": 11989, "eh": 11990, "▁Decolonization": 11991, "丰富": 11992, "地图": 11993, "教育部": 11994, "▁minors": 11995, "▁collaborate": 11996, "▁contributes": 11997, "事务处": 11998, "预算外资源": 11999, "国内生产总值": 12000, "▁ensured": 12001, "▁definitions": 12002, "《21": 12003, "医疗服务": 12004, "▁feasible": 12005, "傳": 12006, "在伊拉克": 12007, "儿基会": 12008, "讓你": 12009, "▁province": 12010, "▁Colonial": 12011, "▁Reiterates": 12012, "概览": 12013, "ل": 12014, "怎么办": 12015, "宣传活动": 12016, "▁pleasure": 12017, "MS": 12018, "两年期拟议方案预算": 12019, "工作者": 12020, "ñ": 12021, "▁arbitral": 12022, "▁wages": 12023, "意思": 12024, "8/": 12025, "▁Back": 12026, "▁religions": 12027, "▁king": 12028, "▁Lu": 12029, "委员会关于": 12030, "▁Professor": 12031, "▁阿尔及利亚": 12032, "之日": 12033, "▁总": 12034, "的任期": 12035, "调查结果": 12036, "▁Po": 12037, "▁Powers": 12038, "▁Granting": 12039, "湖": 12040, "▁我不会": 12041, "基本建设总计划": 12042, "▁Frank": 12043, "闭会期间": 12044, "▁ratifying": 12045, "回返": 12046, "行预咨委会": 12047, "委内瑞拉玻利瓦尔共和国": 12048, "600": 12049, "▁obliged": 12050, "▁资料来源": 12051, "的文化": 12052, "哭": 12053, "▁collaborative": 12054, "该计划": 12055, "不安全": 12056, "偏见": 12057, "污": 12058, "谷": 12059, "是通过": 12060, "▁我没有": 12061, "洞": 12062, "▁entirely": 12063, "和维护": 12064, "礼": 12065, "季": 12066, "年后": 12067, "收养": 12068, "对你": 12069, "袋": 12070, "是你的": 12071, "真实": 12072, "▁afternoon": 12073, "▁indirect": 12074, "原籍国": 12075, "执法人员": 12076, "派出": 12077, "▁livelihoods": 12078, "▁poorest": 12079, "输入": 12080, "非洲经委会": 12081, "▁maintains": 12082, "MA": 12083, "ight": 12084, "文化权利国际公约": 12085, "是以": 12086, "▁wishing": 12087, "▁munitions": 12088, "缔约国在": 12089, "弱势": 12090, "▁cited": 12091, "▁en": 12092, "传统的": 12093, "几次": 12094, "vin": 12095, "统治": 12096, "▁beat": 12097, "人权与": 12098, "▁condemned": 12099, "国家信息通报": 12100, "country": 12101, "环境中": 12102, "和支助": 12103, "宗旨": 12104, "▁Th": 12105, "每日": 12106, "▁launching": 12107, "距离": 12108, "联合国毒品和犯罪问题办公室": 12109, "法律制度": 12110, "▁(2006)": 12111, "加紧努力": 12112, "活动中": 12113, "▁Standard": 12114, "▁Hall": 12115, "区的": 12116, "的损失": 12117, "维和": 12118, "脆弱性": 12119, "▁Figure": 12120, "▁對不起": 12121, "post": 12122, "不允许": 12123, "家长": 12124, "隆": 12125, "间接": 12126, "对他们": 12127, "▁exclusively": 12128, "的支出": 12129, "请允许我": 12130, "7\\": 12131, "▁rendered": 12132, "▁popular": 12133, "斯先生": 12134, "▁sustain": 12135, "其目的是": 12136, "联合国粮食及农业组织": 12137, "▁Australian": 12138, "利息": 12139, "房地": 12140, "善政": 12141, "预警": 12142, "-2015": 12143, "尽力": 12144, "compliance": 12145, "服务和": 12146, "追求": 12147, "▁sole": 12148, ".27": 12149, "▁pool": 12150, "军备": 12151, "剩余": 12152, "▁appraisal": 12153, "▁retirement": 12154, "HBE": 12155, "的结构": 12156, "▁workplace": 12157, "受害": 12158, "▁allocate": 12159, "▁soil": 12160, "還是": 12161, "臭": 12162, "▁非政府组织": 12163, "難": 12164, "▁100.": 12165, "▁destination": 12166, "另一些": 12167, "见到": 12168, "学术": 12169, "炮": 12170, "人在": 12171, "已经在": 12172, "應": 12173, "發生": 12174, "第四十": 12175, "▁巴基斯坦": 12176, "▁kinds": 12177, "在国内": 12178, "▁returns": 12179, "ship": 12180, "阻": 12181, "赞助": 12182, "安全的": 12183, "自行": 12184, "家庭成员": 12185, "轉": 12186, "乔": 12187, "▁Administrator": 12188, "内阁": 12189, "进行评估": 12190, "66\\": 12191, "伦敦": 12192, "进行协商": 12193, "报复": 12194, "配备": 12195, "sen": 12196, "对第": 12197, "dic": 12198, "▁comprises": 12199, "植物": 12200, "观测": 12201, "的财产": 12202, "▁ships": 12203, "精简": 12204, "的初步": 12205, "▁utmost": 12206, "▁codes": 12207, "▁planet": 12208, "▁Subprogramme": 12209, "▁UNCCD": 12210, "演变": 12211, "选定": 12212, "第六委员会": 12213, "▁film": 12214, "判断": 12215, "cause": 12216, "▁Paul": 12217, "▁retention": 12218, "ible": 12219, "判": 12220, "无关": 12221, "▁tribunals": 12222, "▁coffee": 12223, "提供信息": 12224, "▁smuggling": 12225, "并提供": 12226, "59/2": 12227, "ue": 12228, "版本": 12229, "RO": 12230, "▁straight": 12231, "▁Show": 12232, "全面执行": 12233, "必要时": 12234, "▁Samoa": 12235, "署长": 12236, "▁characterized": 12237, "的暴力": 12238, "▁transboundary": 12239, "▁anybody": 12240, "幼": 12241, "里的": 12242, "▁fail": 12243, "自决权": 12244, "NA": 12245, "基金和方案": 12246, "104": 12247, "▁Unity": 12248, "▁curricula": 12249, "一事": 12250, "1949": 12251, "委员会建议": 12252, "▁安": 12253, "▁$6": 12254, "家伙": 12255, "▁depending": 12256, "▁indispensable": 12257, "這是": 12258, "备忘录": 12259, "孕妇": 12260, "bu": 12261, "▁atmosphere": 12262, "▁extraordinary": 12263, "FAO": 12264, "加入了": 12265, "▁Peter": 12266, "▁messages": 12267, "▁till": 12268, "你会": 12269, "国防": 12270, "▁monetary": 12271, "琳": 12272, "监视": 12273, "ON": 12274, "▁72": 12275, "ack": 12276, "▁defining": 12277, "▁1540": 12278, "制定一项": 12279, "恐惧": 12280, "的行动计划": 12281, "▁Bye": 12282, "▁Victims": 12283, "1981": 12284, "duly": 12285, "昂": 12286, "供水": 12287, "▁一旦": 12288, "▁Paragraphs": 12289, "▁mouth": 12290, "中列入": 12291, "容": 12292, "耶路撒冷": 12293, "▁(2000)": 12294, "▁instability": 12295, "指定的": 12296, "联合国人口基金": 12297, "▁Judicial": 12298, "▁analyses": 12299, "▁convey": 12300, "分开": 12301, "清理": 12302, "的非": 12303, "绿色": 12304, "提高了": 12305, "跨国公司": 12306, "下文": 12307, "灰": 12308, "ans": 12309, "几天": 12310, "队伍": 12311, "樂": 12312, "很可能": 12313, "▁imports": 12314, ",2": 12315, "▁Appeal": 12316, "欧洲共同体": 12317, "优": 12318, "rate": 12319, "▁surface": 12320, "合格": 12321, "并重申": 12322, "战争罪": 12323, "▁wrote": 12324, "▁页": 12325, "自主": 12326, "一方面": 12327, "的议程": 12328, "▁每个": 12329, "主要的": 12330, "▁伊": 12331, "和地方": 12332, "将军": 12333, "约束": 12334, "▁guiding": 12335, "▁rely": 12336, "发展方案": 12337, "生产和": 12338, "▁Capital": 12339, "▁resolving": 12340, "末": 12341, "分至": 12342, "代表欧洲联盟": 12343, "养恤基金": 12344, "It": 12345, "(4)": 12346, "5/": 12347, "▁Concerning": 12348, "▁serves": 12349, "千年": 12350, "考试": 12351, "走吧": 12352, "▁municipalities": 12353, "贴": 12354, "准则草案": 12355, "挂": 12356, "ever": 12357, "▁broken": 12358, "实务": 12359, "开枪": 12360, "奖励": 12361, "的水平": 12362, "▁结果": 12363, "av": 12364, "▁performing": 12365, "书记官长": 12366, "批准的": 12367, "初级商品": 12368, "层次": 12369, "▁resume": 12370, "领域内": 12371, "和环境": 12372, "北京": 12373, "事务部": 12374, "▁disciplinary": 12375, "108": 12376, "▁76": 12377, "▁justification": 12378, "号公约": 12379, "以便为": 12380, "的健康": 12381, "谅解": 12382, "▁boss": 12383, "60/2": 12384, "▁dance": 12385, "▁UNOCI": 12386, "仍未": 12387, "▁Press": 12388, "▁另一个": 12389, "▁敦促": 12390, "▁你得": 12391, "包容": 12392, "申请人": 12393, "提供咨询": 12394, "十七": 12395, "▁1997.": 12396, "▁appreciated": 12397, "向其": 12398, "▁還有": 12399, "非洲的": 12400, "▁prosperity": 12401, "▁accorded": 12402, "危害人类罪": 12403, "▁profile": 12404, "妥善": 12405, "为加强": 12406, "治安": 12407, "确信": 12408, "迁移": 12409, "▁会员国": 12410, "▁producing": 12411, "▁埃及": 12412, "公共政策": 12413, "▁先": 12414, "指派": 12415, "访": 12416, "的历史": 12417, "的持续": 12418, "资源和": 12419, "四年": 12420, "▁stopped": 12421, "给予殖民地国家和人民独立宣言": 12422, "国王": 12423, "责": 12424, "▁supportive": 12425, "▁Puerto": 12426, "▁等一下": 12427, "的人道主义": 12428, "▁Library": 12429, "▁calculated": 12430, "▁FCCC": 12431, "▁Ya": 12432, "第一次会议": 12433, "▁difficulty": 12434, "▁indication": 12435, "和人权": 12436, "立法和": 12437, "▁debates": 12438, "进行谈判": 12439, "反对种族主义": 12440, "我们对": 12441, "▁Tobago": 12442, "▁UNMIL": 12443, "▁enacted": 12444, "▁stood": 12445, "▁Private": 12446, "部长级": 12447, "述": 12448, "祖": 12449, "room": 12450, "伊拉克政府": 12451, "要么": 12452, "▁emerged": 12453, "经常资源": 12454, "以满足": 12455, "▁Michael": 12456, "▁不管": 12457, "自愿捐款": 12458, "▁直到": 12459, "成效": 12460, "▁continuity": 12461, "饭": 12462, "烧": 12463, "司司长": 12464, "并由": 12465, "▁不用": 12466, "折": 12467, "▁awarded": 12468, "▁opposed": 12469, "的款项": 12470, "充足": 12471, "裂变材料": 12472, "它们在": 12473, "▁references": 12474, "▁owned": 12475, "贵": 12476, "性别观点": 12477, "▁confidential": 12478, "▁interference": 12479, "就在": 12480, "的适用": 12481, "ade": 12482, "ino": 12483, "▁98": 12484, "▁offenders": 12485, "积": 12486, "益": 12487, "▁promotes": 12488, "的索赔": 12489, "被认为": 12490, "▁Eradication": 12491, "▁securing": 12492, "的例子": 12493, "▁委员会认为": 12494, "organized": 12495, "举行一次": 12496, "正在进行的": 12497, "▁epidemic": 12498, "▁solely": 12499, "▁confirm": 12500, "rk": 12501, "开采": 12502, "恐吓": 12503, "RA": 12504, "▁named": 12505, "▁Account": 12506, "▁挪威": 12507, "流行病": 12508, "▁来自": 12509, "/69/": 12510, "能力的": 12511, "▁circle": 12512, "▁Something": 12513, "消除贫困": 12514, "▁banking": 12515, "▁明天": 12516, "告訴": 12517, "直升机": 12518, "警察和": 12519, "▁shouldn": 12520, "感覺": 12521, "指挥官": 12522, "▁Rural": 12523, "宾": 12524, "永": 12525, "漂亮": 12526, "▁repeatedly": 12527, "来到": 12528, "权力下放": 12529, "胜": 12530, "▁tensions": 12531, "變": 12532, "吻": 12533, "两性": 12534, "重申了": 12535, "的最高": 12536, "的角度": 12537, "▁pillars": 12538, "旅费": 12539, "▁publicly": 12540, "地震": 12541, "的主权": 12542, "▁Maritime": 12543, "▁dark": 12544, "议事规则第": 12545, "选民": 12546, "遏制": 12547, ".9/5": 12548, "民族和解": 12549, "▁airport": 12550, "透": 12551, "危险的": 12552, "包括与": 12553, "都应": 12554, "的潜力": 12555, "编纂": 12556, "ú": 12557, "可通过": 12558, "的生命": 12559, ".24": 12560, "证券": 12561, "▁governed": 12562, "保障监督": 12563, "▁exclusive": 12564, "▁guideline": 12565, "美元的": 12566, "不懂": 12567, "无疑": 12568, "AB": 12569, "的大": 12570, "RI": 12571, "▁赞赏地注意到": 12572, "搭": 12573, "▁Provide": 12574, "確": 12575, "▁combatants": 12576, "▁benchmarks": 12577, "的待遇": 12578, "▁reinforcing": 12579, "护照": 12580, "查询": 12581, "各次": 12582, "向联合国": 12583, "司法部门": 12584, "▁85": 12585, "有多": 12586, "幸": 12587, "▁abstentions": 12588, "▁reminded": 12589, "▁该报告": 12590, "▁defend": 12591, "▁放": 12592, "gg": 12593, "ini": 12594, "~": 12595, "叶": 12596, "得多": 12597, "OR": 12598, "仍是": 12599, "勤": 12600, "▁至少": 12601, "▁我需要": 12602, "▁Swedish": 12603, "▁2000-2001": 12604, "在美国": 12605, "诉诸": 12606, "逐": 12607, "清洁发展机制": 12608, "的朋友": 12609, "上学": 12610, "求你": 12611, "采取后续行动": 12612, "▁declined": 12613, "▁Muslim": 12614, "▁constitution": 12615, "▁imp": 12616, "▁tests": 12617, "▁Cypriot": 12618, "够": 12619, "的另一个": 12620, "▁declare": 12621, "收回": 12622, "ok": 12623, "▁Korean": 12624, "▁preservation": 12625, "▁plays": 12626, "▁alien": 12627, "▁oceans": 12628, "▁Program": 12629, "月举行的": 12630, "ear": 12631, "逊": 12632, "这件事": 12633, "▁advancing": 12634, "▁hatred": 12635, "怎樣": 12636, "▁stands": 12637, "理想": 12638, "▁driving": 12639, "亚太": 12640, "▁claimants": 12641, "▁特派团": 12642, "运营": 12643, "规定的义务": 12644, "▁caught": 12645, "International": 12646, "▁argument": 12647, "▁「": 12648, "巴勒斯坦问题": 12649, "这些权利": 12650, "和各": 12651, "流入": 12652, "ac": 12653, "/1)": 12654, "的各项决议": 12655, "▁下列": 12656, "▁hundreds": 12657, "▁知道": 12658, "▁Emphasizes": 12659, "總": 12660, "警务": 12661, "▁CO": 12662, "▁OSCE": 12663, "不歧视": 12664, "▁Has": 12665, "状": 12666, "▁historic": 12667, "太多": 12668, "的潜在": 12669, "上诉法院": 12670, "▁vacancies": 12671, "会议服务": 12672, "签订": 12673, "▁ozone": 12674, "附属": 12675, "作了发言": 12676, "第二章": 12677, "維": 12678, "麼": 12679, "所谓": 12680, "结束了": 12681, "▁fate": 12682, "▁recipient": 12683, "ping": 12684, "107": 12685, "▁95": 12686, "和援助": 12687, "▁Brussels": 12688, "预先": 12689, "▁makers": 12690, "▁工发组织": 12691, "并酌情": 12692, "ira": 12693, "和平与稳定": 12694, "欧洲经委会": 12695, "附件三": 12696, "▁Life": 12697, "▁Organizational": 12698, "▁Overall": 12699, "幸福": 12700, "整合": 12701, "权益": 12702, "▁今年": 12703, "关联": 12704, "▁Gabon": 12705, "▁communicate": 12706, "不清楚": 12707, "▁nevertheless": 12708, "入学": 12709, "生产力": 12710, "进一步发展": 12711, "▁cancer": 12712, "的平均": 12713, "▁killings": 12714, "以协助": 12715, "初次报告": 12716, "损": 12717, "那时": 12718, "试点": 12719, "增编": 12720, "环境保护": 12721, "优势": 12722, "▁Key": 12723, "成为一个": 12724, "这是一个": 12725, "▁observe": 12726, "▁filled": 12727, "▁Substantive": 12728, "ology": 12729, "▁injuries": 12730, "彼得": 12731, "▁呼吁": 12732, "简报": 12733, "▁Botswana": 12734, "▁compromise": 12735, "目的在于": 12736, "系列": 12737, "▁Unfortunately": 12738, "▁accessibility": 12739, "复员和重返社会": 12740, "▁IX": 12741, "▁Long": 12742, "▁全": 12743, "▁Guyana": 12744, "▁saved": 12745, "car": 12746, "▁stereotypes": 12747, "还可以": 12748, "▁Rwandan": 12749, "▁aspirations": 12750, "国际工作人员": 12751, "▁ran": 12752, "公共服务": 12753, "▁Fine": 12754, "▁铭记": 12755, "▁sports": 12756, "优先领域": 12757, "终于": 12758, "窗": 12759, ".3)": 12760, "▁今晚": 12761, "▁為什麼": 12762, "▁machine": 12763, "你想": 12764, "看着": 12765, "社会福利": 12766, "西部": 12767, "槍": 12768, "的土地": 12769, "绩效指标": 12770, "▁Damn": 12771, "结论性意见": 12772, "指导委员会": 12773, "感到关切的是": 12774, "躲": 12775, "": 12776, "▁teacher": 12777, "▁seas": 12778, "▁buyer": 12779, "區": 12780, "国际条约": 12781, "▁Subsequently": 12782, "执": 12783, "▁不行": 12784, "不遵守": 12785, "人均": 12786, "▁recalling": 12787, "幼儿": 12788, "投资者": 12789, "/2013/": 12790, "知识和": 12791, "了你": 12792, "卫生和": 12793, "▁annexes": 12794, "将根据": 12795, "三分之一": 12796, "在你": 12797, "较高": 12798, "出发": 12799, "汇款": 12800, "dis": 12801, "▁101.": 12802, "在线": 12803, "▁請": 12804, "网页": 12805, "分为": 12806, "尾": 12807, "物种": 12808, "▁Mother": 12809, "国际货币基金组织": 12810, "▁honey": 12811, "充分参与": 12812, "▁engineering": 12813, "予": 12814, "预防犯罪和刑事司法": 12815, ".23": 12816, "san": 12817, "高级专员办事处": 12818, "标准的": 12819, "海盗": 12820, "▁initially": 12821, "▁执行局": 12822, "▁这不是": 12823, "木材": 12824, "的技术援助": 12825, "▁render": 12826, "ably": 12827, "認為": 12828, "▁utilized": 12829, "人身": 12830, "ju": 12831, "消失": 12832, "的解决办法": 12833, "纲领": 12834, "所有有关": 12835, "▁divided": 12836, "▁denial": 12837, "▁student": 12838, "宏观经济": 12839, "波动": 12840, "▁elaborated": 12841, "▁decree": 12842, "这两": 12843, "▁resort": 12844, "应收款": 12845, "▁150": 12846, "▁George": 12847, "table": 12848, "▁capita": 12849, "▁enormous": 12850, "效应": 12851, "▁wonder": 12852, "守则": 12853, "两位": 12854, "成员的": 12855, "筹集": 12856, "累": 12857, "▁curriculum": 12858, "▁pledged": 12859, "女儿": 12860, "贸": 12861, "▁bridge": 12862, "ative": 12863, "年审议大会": 12864, "▁extending": 12865, "十九": 12866, "▁loan": 12867, "册": 12868, "国际人权法": 12869, "政策的": 12870, "独立性": 12871, "▁Woods": 12872, "▁这是一个": 12873, "101": 12874, "▁120": 12875, "似": 12876, "▁upgrading": 12877, "插": 12878, "呈": 12879, "赶": 12880, "遵照": 12881, "景": 12882, "是要": 12883, "▁leads": 12884, "的正式": 12885, "ü": 12886, "▁dual": 12887, "▁conversion": 12888, "▁distinct": 12889, "残忍": 12890, "-15": 12891, "贩毒": 12892, "扩大到": 12893, "的斗争": 12894, "▁databases": 12895, "环境问题": 12896, "调查表": 12897, "▁fulfilled": 12898, "采取必要措施": 12899, "tin": 12900, "人生": 12901, "中所": 12902, "▁attract": 12903, "和合作": 12904, "您的": 12905, "▁returning": 12906, "▁Welcome": 12907, "▁Target": 12908, "入学率": 12909, "1986": 12910, "▁(2005)": 12911, "▁considerably": 12912, "传染病": 12913, "政治和": 12914, "现状": 12915, "第二阶段": 12916, "管理层": 12917, "▁inadmissible": 12918, "▁為": 12919, "日通过的": 12920, "知情": 12921, "核算": 12922, "是如何": 12923, "的武器": 12924, "超越": 12925, "▁Seminar": 12926, "▁非常": 12927, "NLB": 12928, "▁wrongful": 12929, "依法": 12930, "近年来": 12931, "搜索": 12932, "段和第": 12933, "软": 12934, "▁Welfare": 12935, "在许多": 12936, "例子": 12937, "▁investigated": 12938, "▁roll": 12939, "ada": 12940, "业已": 12941, "▁proceeding": 12942, "的知识": 12943, "工业发展": 12944, "▁permission": 12945, "的力量": 12946, "▁occupational": 12947, "号决议的规定": 12948, "▁Father": 12949, "小心": 12950, "和教育": 12951, "空气": 12952, "聘用": 12953, "国际法庭": 12954, "aida": 12955, "zo": 12956, "人权事务高级专员办事处": 12957, "追加": 12958, "▁Commander": 12959, "蠢": 12960, "▁sake": 12961, "尊严": 12962, "▁Everyone": 12963, "号来文": 12964, "102": 12965, "在我": 12966, "许多人": 12967, "操": 12968, "前任": 12969, "Do": 12970, "原则上": 12971, "▁River": 12972, "循环": 12973, "1970": 12974, "1984": 12975, "▁sweet": 12976, "103": 12977, "和方案": 12978, "▁clause": 12979, "征": 12980, "谨慎": 12981, "和法律": 12982, "该区域的": 12983, "▁employee": 12984, "▁比如": 12985, "所附": 12986, "蔓延": 12987, "2:": 12988, "号法": 12989, "西亚经社会": 12990, "▁Brett": 12991, "▁assurance": 12992, "▁联合王国": 12993, "这些项目": 12994, "▁瑞士": 12995, "菜": 12996, "▁大多数": 12997, "不如": 12998, "808080}": 12999, "扫盲": 13000, "van": 13001, "▁loved": 13002, "监督和": 13003, "消灭": 13004, "▁heavily": 13005, "Mo": 13006, "科学家": 13007, "控": 13008, "▁instalment": 13009, "宣传和": 13010, "美国政府": 13011, "的申诉": 13012, "▁102.": 13013, "疫苗": 13014, "职权范围": 13015, "迁": 13016, "特立尼达和多巴哥": 13017, "ning": 13018, "▁Views": 13019, "▁mobilizing": 13020, "和报告": 13021, "候": 13022, "ن": 13023, "▁describe": 13024, "▁divorce": 13025, "▁stipulates": 13026, "全球机制": 13027, "▁邀请": 13028, "▁smaller": 13029, "段的规定": 13030, "影响力": 13031, "▁penal": 13032, "船只": 13033, "这么说": 13034, "特使": 13035, "第五十六届会议": 13036, "财政期间": 13037, "▁extrajudicial": 13038, "和私营部门": 13039, "帝": 13040, "罚款": 13041, "并欢迎": 13042, "▁damages": 13043, "和一个": 13044, "▁acknowledge": 13045, "启动了": 13046, "▁Role": 13047, "北草坪会议大楼": 13048, "旁": 13049, "鼓励各国": 13050, "▁ta": 13051, "▁unacceptable": 13052, "段落": 13053, "捐赠": 13054, "▁Trinidad": 13055, "迄今为止": 13056, "OS": 13057, "1:": 13058, "已开始": 13059, "邊": 13060, "姑娘": 13061, "生殖": 13062, "▁Addendum": 13063, "十一": 13064, "": 13065, "▁orbit": 13066, "智": 13067, "积极参加": 13068, "富有": 13069, "应确保": 13070, "▁abortion": 13071, "卫生保健": 13072, "孩子们": 13073, "军事行动": 13074, "gar": 13075, "▁maximize": 13076, "正在进行": 13077, "▁desirable": 13078, "▁affects": 13079, "屋": 13080, "虽": 13081, "区域和": 13082, "▁thou": 13083, "电台": 13084, "▁Certain": 13085, "▁Gu": 13086, "惡": 13087, "有任何": 13088, "一个新的": 13089, "名义": 13090, "▁separately": 13091, "阶层": 13092, "这些组织": 13093, "每次": 13094, "帮忙": 13095, "▁fresh": 13096, "答案": 13097, "调查委员会": 13098, "▁1970": 13099, "▁Domestic": 13100, "打破": 13101, "的事态发展": 13102, "的详细": 13103, "▁false": 13104, "宽": 13105, "日举行": 13106, "▁attendance": 13107, "▁herewith": 13108, "国际金融": 13109, "▁prescribed": 13110, ",200": 13111, "城镇": 13112, "▁o": 13113, "▁zero": 13114, "大会正式记录": 13115, "计划的": 13116, "得到加强": 13117, "也不会": 13118, "划分": 13119, "▁patients": 13120, "及有关": 13121, "机遇": 13122, "▁investors": 13123, "▁portion": 13124, "假定": 13125, "据报": 13126, "以西班牙语": 13127, "▁advantages": 13128, "▁rapporteurs": 13129, "儿童问题": 13130, "ita": 13131, "Test": 13132, "信号": 13133, "利益攸关者": 13134, "▁shares": 13135, "当代": 13136, "▁wear": 13137, "之下的": 13138, "主管部门": 13139, "和行动": 13140, "錯": 13141, "▁Peaceful": 13142, "▁pull": 13143, "延误": 13144, "想想": 13145, "本会议": 13146, "57/2": 13147, "▁associate": 13148, "▁brings": 13149, "分别为": 13150, "疯了": 13151, "▁surrounding": 13152, "▁Black": 13153, "估算": 13154, "关切的是": 13155, "计量": 13156, "赢": 13157, "详尽": 13158, "▁HUMAN": 13159, "▁Lakes": 13160, "鸟": 13161, "▁Regular": 13162, "▁在这种情况下": 13163, "▁一词": 13164, "均衡": 13165, "感到关切": 13166, "和其他有关": 13167, "▁index": 13168, "围绕": 13169, "▁interpreted": 13170, "这将": 13171, "访问了": 13172, "刑事诉讼": 13173, "▁eventually": 13174, "▁Libya": 13175, "▁sphere": 13176, "▁Mi": 13177, "各国在": 13178, "": 13179, "收容": 13180, "Article": 13181, "▁aforementioned": 13182, "程序的": 13183, "25%": 13184, "▁modified": 13185, "▁ASEAN": 13186, "组织了": 13187, "和做法": 13188, "它对": 13189, "的效率": 13190, "有意": 13191, "的中心": 13192, "▁weather": 13193, "▁intersessional": 13194, "▁president": 13195, "有益": 13196, "▁partial": 13197, "▁Si": 13198, "主要委员会": 13199, "大小": 13200, "曼谷": 13201, "社会中": 13202, "增设": 13203, "模": 13204, "▁我们也": 13205, "一直是": 13206, "号决定中": 13207, "▁Leave": 13208, "对这一": 13209, "法律文书": 13210, "执行情况的报告": 13211, "cc": 13212, "在发展中国家": 13213, "在世界": 13214, "▁tracking": 13215, "甘": 13216, "非洲大陆": 13217, "shi": 13218, "▁Bhutan": 13219, "评注": 13220, "特权": 13221, "的安排": 13222, "▁Inhuman": 13223, "初级": 13224, "债": 13225, "的工作方案": 13226, "的说法": 13227, "▁Response": 13228, "弃": 13229, "▁我们会": 13230, "▁Journal": 13231, "一揽子": 13232, "單": 13233, "为支持": 13234, "▁adapt": 13235, "bi": 13236, "▁叫": 13237, "部委": 13238, "核证": 13239, "▁revenues": 13240, "都可以": 13241, "参加者": 13242, "国际恐怖主义": 13243, "及相关": 13244, "对我们": 13245, "昨天": 13246, "▁trip": 13247, "消除种族歧视委员会": 13248, "很有": 13249, "SBI": 13250, "▁jurisdictions": 13251, "▁preceding": 13252, "有些国家": 13253, "过于": 13254, "CC": 13255, "环境基金": 13256, "▁ECOWAS": 13257, "感兴趣的": 13258, "▁Ali": 13259, "ft": 13260, "▁sum": 13261, "对发展中国家": 13262, "惠益": 13263, "▁flag": 13264, "三个月": 13265, "刺": 13266, "娘": 13267, "静": 13268, "狂": 13269, "▁mark": 13270, "联合国和": 13271, "▁inequalities": 13272, "教育方案": 13273, "月以来": 13274, "和谐": 13275, "重返社会": 13276, "苯": 13277, "会有": 13278, "原件": 13279, "达成共识": 13280, "▁colour": 13281, "卡拉": 13282, "处以": 13283, "备选办法": 13284, "decision": 13285, "▁jurisprudence": 13286, "羊": 13287, "的愿望": 13288, "▁spite": 13289, "人道": 13290, "▁producers": 13291, "tu": 13292, "▁districts": 13293, "龄": 13294, "▁她是": 13295, "脸": 13296, "▁agent": 13297, "陈": 13298, "家园": 13299, ".29": 13300, "配置": 13301, "": 13302, "任务规定": 13303, "因为这些": 13304, "所在地": 13305, "联合国出版物": 13306, "▁terrible": 13307, "维和部": 13308, "广大": 13309, "rah": 13310, "联合国难民事务高级专员办事处": 13311, "▁broaden": 13312, "检验": 13313, "▁descent": 13314, "健康和": 13315, "(2009)": 13316, "▁unprecedented": 13317, "▁CDM": 13318, "▁warm": 13319, "▁的决议草案": 13320, "修建": 13321, "▁eleventh": 13322, "就业和": 13323, "联合国千年宣言": 13324, "徒": 13325, "/2012/": 13326, "和参与": 13327, "广告": 13328, "▁harmonized": 13329, "拨出": 13330, "绝大多数": 13331, "团伙": 13332, "重新安置": 13333, "抵": 13334, "ical": 13335, "▁detection": 13336, "▁bio": 13337, "第三个": 13338, "NPT": 13339, "全面审查": 13340, "促进可持续发展": 13341, "渔": 13342, "▁undertook": 13343, "教育和培训": 13344, "付出": 13345, "government": 13346, "效": 13347, "与国际": 13348, "▁wording": 13349, "行政管理": 13350, "▁blow": 13351, "代表参加": 13352, "▁escape": 13353, "▁politics": 13354, "细节": 13355, "旅": 13356, "的根源": 13357, "隔": 13358, "▁Attorney": 13359, "▁土耳其": 13360, "综合性": 13361, "▁En": 13362, "▁ruling": 13363, "优先考虑": 13364, "流通": 13365, "的意愿": 13366, "▁ultimate": 13367, "的主席": 13368, "细则": 13369, "▁Sha": 13370, "▁faces": 13371, "▁Maldives": 13372, "错了": 13373, "▁inherent": 13374, "▁um": 13375, "摸": 13376, "约为": 13377, "▁该方案": 13378, "巴勒斯坦难民": 13379, "深刻": 13380, "出席了": 13381, "▁summarized": 13382, "活跃": 13383, "能在": 13384, "有利的": 13385, "種": 13386, "▁Ne": 13387, "乘": 13388, "抵达": 13389, "自由化": 13390, "范": 13391, "▁examining": 13392, "代表团认为": 13393, "成立的": 13394, "▁Programmes": 13395, "联合国毒品和犯罪问题办事处": 13396, "应考虑": 13397, "和美利坚合众国": 13398, "媽": 13399, "▁demographic": 13400, "58/2": 13401, "▁secretariats": 13402, "▁难民署": 13403, "▁Whatever": 13404, "全文": 13405, "▁amounting": 13406, "▁adjusted": 13407, "▁尽管如此": 13408, "▁Aspects": 13409, "▁sold": 13410, "口译": 13411, "那樣": 13412, "反对派": 13413, "▁investigating": 13414, "▁translated": 13415, "失望": 13416, "糖": 13417, "购": 13418, "▁obvious": 13419, "的制度": 13420, "配额": 13421, "发行": 13422, "ists": 13423, "▁Degrading": 13424, "兒子": 13425, "王国": 13426, "闭幕": 13427, "将要": 13428, "的可能": 13429, "convened": 13430, "所提": 13431, "该国的": 13432, "老挝人民民主共和国": 13433, "因为他": 13434, "61/2": 13435, "交存": 13436, "ew": 13437, "▁wherever": 13438, "▁你不是": 13439, "分离": 13440, "制度的": 13441, "涉嫌": 13442, "▁deterioration": 13443, "预算外": 13444, "▁parameters": 13445, "▁Coordinating": 13446, "国家政府": 13447, "蓄意": 13448, "▁roads": 13449, "的有效性": 13450, "▁acceded": 13451, "产量": 13452, "熟悉": 13453, "在全国": 13454, "▁exclude": 13455, "委员会审议": 13456, "秘书长的": 13457, "积累": 13458, "法典": 13459, "伤亡": 13460, "▁punish": 13461, "恐怖行为": 13462, "问题工作组": 13463, "202020}": 13464, "繼續": 13465, "ala": 13466, "▁Pe": 13467, "可供": 13468, "以便使": 13469, "▁Meetings": 13470, "亲属": 13471, "消除对妇女歧视委员会": 13472, "▁folder": 13473, "等人": 13474, "赖": 13475, "(1997": 13476, "园": 13477, "进行讨论": 13478, "▁缔约方会议": 13479,
[...]
